node {
  name: "train/train_input/raw_data"
  op: "Const"
  attr {
    key: "_output_shapes"
    value {
      list {
        shape {
          dim {
            size: 50010
          }
        }
      }
    }
  }
  attr {
    key: "dtype"
    value {
      type: DT_INT32
    }
  }
  attr {
    key: "value"
    value {
      tensor {
        dtype: DT_INT32
        tensor_shape {
          dim {
            size: 50010
          }
        }
        tensor_content: "\001\000\000\000=\000\000\000\000\000\000\000\'\000\000\000\n\000\000\000p\002\000\000\003\000\000\000\027\002\000\000\366\000\000\000$\002\000\000\002\000\000\000\001\000\000\000\007\000\000\000\000\000\000\000\020\000\000\000\270\002\000\000l\003\000\000\003\000\000\000\265\002\000\000\213\001\000\000\002\000\000\000\001\000\000\000\351\000\000\000\002\000\000\000\001\000\000\000v\000\000\000\000\000\000\000\t\000\000\000\005\000\000\000\205\001\000\000\000\000\000\000\002\000\000\000\001\000\000\000\t\000\000\000\013\000\000\000>\000\000\000\325\000\000\000\000\000\000\000\007\000\000\000\020\000\000\000\006\000\000\000\000\000\000\000\013\000\000\000\t\000\000\000\006\000\000\000g\003\000\000\000\000\000\000\002\000\000\000\001\000\000\000\006\000\000\000\000\000\000\000\000\000\000\000\014\003\000\000\002\000\000\000\001\000\000\000.\000\000\000\325\000\000\000\000\000\000\000\002\000\000\000\001\000\000\000\000\000\000\000\000\000\000\000\020\000\000\000\006\000\000\000\000\000\000\000\020\000\000\000\006\000\000\000\000\000\000\000\006\000\000\000\000\000\000\000\002\000\000\000\001\000\000\000\006\000\000\000\000\000\000\000\000\000\000\000\000\000\000\000\'\000\000\000\006\000\000\000\000\000\000\000\032\001\000\000\000\000\000\000\006\000\000\000\000\000\000\000\016\000\000\000\005\000\000\000\000\000\000\000\000\000\000\000\014\000\000\000\000\000\000\000\010\000\000\000\002\000\000\000\001\000\000\000\017\000\000\000\000\000\000\000\325\000\000\000\000\000\000\000\014\000\000\0002\000\000\000\036\000\000\000\000\000\000\000\002\000\000\000\001\000\000\000\000\000\000\000>\000\000\000\250\000\000\000\024\001\000\000\000\000\000\000z\002\000\000\020\000\000\000\r\000\000\000\362\000\000\000\010\000\000\000\005\000\000\000\000\000\000\000$\001\000\000\024\000\000\000w\001\000\000\300\000\000\000r\000\000\000\002\000\000\000\001\000\000\000\036\000\000\000\000\000\000\000?\000\000\000\235\000\000\000\325\000\000\000\000\000\000\000\034\000\000\000\006\000\000\000\000\000\000\000\000\000\000\000\014\000\000\000\002\000\000\000\001\000\000\000v\000\000\000\000\000\000\000\010\000\000\000\003\000\000\000\000\000\000\000\002\000\000\000\001\000\000\000\034\001\000\000:\000\000\000\000\000\000\000H\000\000\000\014\000\000\000)\000\000\000\327\000\000\000\t\000\000\000*\000\000\000\345\001\000\000\026\000\000\000\006\000\000\000\000\000\000\000\000\000\000\000\000\000\000\000\010\000\000\000\000\000\000\000\002\000\000\000\001\000\000\000\007\000\000\000\034\000\000\000\014\000\000\0002\000\000\000\022\000\000\000\002\000\000\000\001\000\000\000-\002\000\000\214\001\000\000\n\000\000\000\003\000\000\000-\001\000\000\366\000\000\000\004\000\000\000=\000\000\0001\000\000\000\002\000\000\000\001\000\000\000\003\000\000\000\330\002\000\000\356\001\000\000\n\000\000\000\003\000\000\0003\001\000\000\004\000\000\000\000\000\000\000\000\000\000\000\002\000\000\000\001\000\000\000\006\000\000\000\000\000\000\000k\000\000\000\222\000\000\000\007\000\000\000\021\000\000\000\227\000\000\000\006\000\000\000\000\000\000\000\002\000\000\000\001\000\000\000\305\000\000\000\272\002\000\000,\000\000\000\023\000\000\000\262\000\000\000\002\000\000\000\001\000\000\000\305\000\000\000\002\000\000\000\001\000\000\000\000\000\000\000.\000\000\000\000\000\000\000D\000\000\000\023\000\000\000\004\000\000\000\000\000\000\000\n\000\000\000\006\000\000\000\000\000\000\000\333\001\000\000,\000\000\000\000\000\000\000\002\000\000\000\001\000\000\000@\000\000\000\023\000\000\0007\000\000\000\014\000\000\000\330\002\000\000\000\000\000\000\235\003\000\000\n\000\000\000\003\000\000\000\000\000\000\000\225\002\000\000r\000\000\000\023\000\000\000\017\000\000\000\014\000\000\000y\000\000\000\000\000\000\000\000\000\000\000\027\000\000\000\000\000\000\000,\000\000\000\023\000\000\000%\000\000\000\227\000\000\000^\000\000\000\000\000\000\000\262\000\000\000\002\000\000\000\001\000\000\000\000\000\000\000\004\000\000\000\000\000\000\000\000\000\000\000-\002\000\000\214\001\000\000\336\000\000\0003\000\000\000z\000\000\000)\000\000\000\000\000\000\000\035\000\000\000C\000\000\000\000\000\000\000\002\000\000\000\001\000\000\000\006\000\000\000\000\000\000\000m\002\000\000\000\000\000\000\016\000\000\000\010\000\000\000#\000\000\000\031\000\000\000u\000\000\000;\000\000\000$\000\000\000\003\000\000\000E\001\000\000\000\000\000\000\024\001\000\000\000\000\000\000\010\000\000\000\003\000\000\000\000\000\000\000\004\000\000\000\003\000\000\000-\001\000\000\000\000\000\000\n\000\000\000\000\000\000\000\000\000\000\000\000\000\000\000\002\000\000\000\001\000\000\000\214\001\000\000\315\000\000\000\010\000\000\000\000\000\000\000\000\000\000\000\232\000\000\000\350\000\000\000\n\000\000\000c\000\000\000\010\000\000\000\000\000\000\000\026\000\000\000\030\000\000\000\004\000\000\000\000\000\000\000\r\000\000\000H\000\000\000|\000\000\000\010\000\000\000\003\000\000\0006\000\000\000\264\002\000\000j\000\000\000\000\000\000\000\007\000\000\000\006\000\000\000\000\000\000\000\000\000\000\000\007\000\000\000\320\002\000\000 \000\000\000\000\000\000\000\000\000\000\000\005\000\000\000Q\003\000\000\002\000\000\000\001\000\000\000-\002\000\000\214\000\000\000h\000\000\000\000\000\000\000\013\000\000\000\000\000\000\000\003\000\000\0006\000\000\000\000\000\000\000\000\000\000\000\255\001\000\000\026\000\000\000\003\000\000\000\000\000\000\000\002\000\000\000\001\000\000\000\023\000\000\000C\001\000\000(\000\000\000\000\000\000\000\n\000\000\000N\000\000\000\014\000\000\0006\000\000\000X\003\000\000N\000\000\000\014\000\000\000y\000\000\000\007\000\000\000\000\000\000\000N\000\000\000\014\000\000\000\353\002\000\000\000\000\000\000\000\000\000\000\006\000\000\000\000\000\000\000\010\000\000\000\003\000\000\000\000\000\000\000\000\000\000\000\000\000\000\000\000\000\000\000\003\000\000\000\000\000\000\000w\000\000\000\320\002\000\000\003\000\000\000\027\002\000\000\366\000\000\000\n\000\000\000\003\000\000\000\000\000\000\000\000\000\000\000\000\000\000\000\004\000\000\000\000\000\000\000\000\000\000\000\000\000\000\000\210\000\000\000\026\000\000\000\003\000\000\000\000\000\000\000\014\001\000\000\014\000\000\000y\000\000\000d\001\000\000\006\000\000\000\000\000\000\000\003\002\000\000\000\000\000\000\000\000\000\000\002\000\000\000\001\000\000\000\t\000\000\000\323\000\000\000\027\000\000\000\233\000\000\000\000\000\000\000\036\000\000\000/\000\000\000C\000\000\000\000\000\000\000\010\000\000\000\003\000\000\000\000\000\000\000\004\000\000\000\003\000\000\000-\001\000\000\366\000\000\000\n\000\000\000\003\000\000\000\330\002\000\000\356\001\000\000\004\000\000\000\000\000\000\000\002\000\000\000\001\000\000\000\020\000\000\000\002\000\000\000\001\000\000\000\214\001\000\000[\001\000\000\000\000\000\000 \000\000\000\000\000\000\000\002\000\000\000\001\000\000\000\000\000\000\0006\002\000\000\016\000\000\000\330\002\000\000A\002\000\000W\002\000\000\004\000\000\000\005\000\000\000\000\000\000\000\"\000\000\000\214\001\000\000,\000\000\000\014\000\000\000\000\000\000\000\000\000\000\000\007\000\000\000(\000\000\000\000\000\000\000\210\000\000\000\010\000\000\000\003\000\000\000\000\000\000\000\000\000\000\000\002\000\000\000\001\000\000\000\t\000\000\000,\000\000\000\023\000\000\000.\000\000\0001\000\000\000\261\001\000\000)\000\000\000\227\000\000\000\365\002\000\000\n\000\000\000\003\000\000\000-\001\000\000\366\000\000\000@\000\000\000\023\000\000\0007\000\000\000\376\001\000\000\000\000\000\000\010\000\000\000\003\000\000\000\000\000\000\000\005\000\000\000\000\000\000\000\n\000\000\000\014\000\000\000\000\000\000\000\243\000\000\000X\000\000\000\003\000\000\000\000\000\000\000\000\000\000\000\007\000\000\000\000\000\000\000\002\000\000\000\001\000\000\000h\000\000\000\014\000\000\000\000\000\000\000\"\000\000\000\000\000\000\000\r\000\000\000\000\000\000\000\002\000\000\000\001\000\000\000=\000\000\0001\000\000\000\027\000\000\000\214\001\000\000\005\000\000\000Q\003\000\000\000\000\000\000\000\000\000\000g\002\000\000\017\000\000\000\006\000\000\0006\000\000\000\000\000\000\000\004\000\000\000\226\000\000\000m\000\000\000\222\000\000\000\t\000\000\000C\000\000\000\n\000\000\000\006\000\000\000\000\000\000\000y\000\000\000\213\000\000\000\247\001\000\000\002\000\000\000\001\000\000\000\024\000\000\000\003\000\000\000\000\000\000\000\010\000\000\000\214\001\000\000\320\002\000\000\005\000\000\000\000\000\000\000\004\000\000\000\003\000\000\000\000\000\000\000\002\000\000\000\001\000\000\000\003\000\000\000\000\000\000\000T\002\000\000\r\000\000\000\316\002\000\000\002\000\000\000\001\000\000\000\214\001\000\000\013\000\000\000\006\000\000\000\004\000\000\000\003\000\000\000\275\000\000\000\016\000\000\000\025\000\000\000\345\000\000\000-\000\000\0009\000\000\000\000\000\000\000\000\000\000\000\000\000\000\000\'\000\000\000\000\000\000\000\002\000\000\000\001\000\000\000\005\000\000\000\200\001\000\000\002\000\000\000\001\000\000\000\003\000\000\000\002\000\000\000\001\000\000\000\000\000\000\000\000\000\000\000\000\000\000\000\204\000\000\000\\\000\000\000\020\000\000\000\006\000\000\000\000\000\000\000\000\000\000\000\243\000\000\0007\000\000\000\006\000\000\000\000\000\000\000\010\000\000\000\003\000\000\000-\001\000\000\000\000\000\000\006\000\000\000\000\000\000\000W\000\000\000\003\000\000\000\243\002\000\000\000\000\000\000\007\000\000\000\000\000\000\000\005\000\000\000\375\002\000\000\t\000\000\000E\001\000\000\000\000\000\000\000\000\000\000\002\000\000\000\001\000\000\000\020\000\000\000`\001\000\000\025\000\000\000!\000\000\000Y\001\000\000\022\000\000\000\024\000\000\000>\000\000\000\000\000\000\000\002\000\000\000\001\000\000\000\005\000\000\000\000\000\000\000\002\000\000\000\001\000\000\000\024\000\000\000!\000\000\000\230\000\000\000\000\000\000\000\006\000\000\000\000\000\000\000\000\000\000\000\002\000\000\000\001\000\000\000\003\000\000\000\000\000\000\000\004\000\000\000\005\000\000\000\000\000\000\000\002\000\000\000\001\000\000\000\214\001\000\000\027\000\000\000\021\000\000\000\003\000\000\000\330\000\000\000\000\000\000\000\004\000\000\000\003\000\000\000i\003\000\000-\001\000\000\366\000\000\000\002\000\000\000\001\000\000\000/\000\000\000\000\000\000\000\004\000\000\000\000\000\000\000x\001\000\000\016\000\000\000\014\000\000\000\375\000\000\000\000\000\000\000@\000\000\000\023\000\000\000\010\000\000\000\014\000\000\000\000\000\000\000\037\000\000\000\000\000\000\000\035\000\000\000\006\000\000\000\346\003\000\000\000\000\000\000\004\000\000\000\177\000\000\000\217\000\000\000\222\000\000\000\017\000\000\000\014\000\000\000\000\000\000\000N\000\000\000\003\000\000\000;\002\000\000\000\000\000\000\002\000\000\000\001\000\000\000\005\000\000\0004\000\000\000\000\000\000\000\r\000\000\000A\000\000\0000\000\000\000)\000\000\000\000\000\000\000\336\000\000\000\022\000\000\000\000\000\000\000\016\000\000\000\006\000\000\000\000\000\000\000\010\000\000\000\003\000\000\000\336\003\000\000\355\000\000\000\000\000\000\000\025\000\000\000\033\000\000\000\363\002\000\000\000\000\000\000\003\000\000\000\000\000\000\000\002\000\000\000\001\000\000\000.\000\000\000\004\000\000\000\002\000\000\000\001\000\000\000\000\000\000\000\010\000\000\000\177\000\000\000\217\000\000\000\272\002\000\000w\000\000\000\r\000\000\000\335\000\000\000\002\000\000\000\001\000\000\000\000\000\000\000\013\000\000\000\000\000\000\000\026\000\000\000$\001\000\000\006\000\000\000\351\000\000\000\000\000\000\000\005\000\000\000\003\000\000\000\000\000\000\000\013\000\000\000\030\000\000\000\003\000\000\000\000\000\000\000\017\000\000\000\014\000\000\000\000\000\000\000\r\000\000\000\000\000\000\000\002\000\000\000\001\000\000\000\010\000\000\000\005\000\000\000\000\000\000\000\004\000\000\000\000\000\000\000\002\000\000\000\001\000\000\000\000\000\000\000Q\000\000\000\005\000\000\000F\000\000\000\002\000\000\000\001\000\000\000\000\000\000\000+\001\000\000$\001\000\000\030\000\000\000\r\000\000\000|\003\000\000\t\000\000\000\033\000\000\000\003\000\000\000\000\000\000\0007\001\000\000\016\000\000\000$\001\000\000\n\000\000\000\345\000\000\000\000\000\000\000\003\000\000\000q\003\000\000H\000\000\000\002\000\000\000\001\000\000\000\t\000\000\000\033\000\000\000\t\000\000\000\021\000\000\000\355\000\000\000M\000\000\000|\003\000\000\025\000\000\000\033\000\000\000&\000\000\000$\001\000\000\000\000\000\000o\000\000\000\021\000\000\000\010\000\000\000\345\000\000\000\n\000\000\000\002\000\000\000\001\000\000\000\005\000\000\000\013\000\000\000\000\000\000\000\000\000\000\000\t\000\000\000\034\002\000\000\000\000\000\000|\000\000\000\335\000\000\000\030\000\000\000/\000\000\000\000\000\000\000\r\000\000\000\353\000\000\000\002\000\000\000\001\000\000\000\007\000\000\000\003\000\000\000\000\000\000\000p\003\000\000\000\000\000\000\000\000\000\000\000\000\000\000\267\002\000\000{\001\000\000\002\000\000\000\001\000\000\000\023\000\000\000\000\000\000\000\004\000\000\000\006\000\000\000\000\000\000\000\000\000\000\000{\000\000\000\016\000\000\000P\000\000\000\000\000\000\000\036\000\000\000\275\000\000\000\016\000\000\000\350\000\000\000\005\000\000\000$\001\000\0003\000\000\000\000\000\000\000\002\000\000\000\001\000\000\000\010\000\000\000\t\000\000\000\000\000\000\000\027\000\000\000x\001\000\000s\000\000\000\021\000\000\000\002\000\000\000\001\000\000\000\006\000\000\000\000\000\000\000O\001\000\000\000\000\000\000\000\000\000\000\t\000\000\000\003\000\000\000\000\000\000\000\005\000\000\000\000\000\000\000\027\000\000\000\351\001\000\000\004\000\000\000\014\000\000\000\212\000\000\000\000\000\000\000\002\000\000\000\001\000\000\000a\000\000\000,\000\000\000\023\000\000\000{\000\000\000!\000\000\000\010\000\000\000\006\000\000\000\004\000\000\000\003\000\000\000\000\000\000\000\000\000\000\000\026\001\000\000\002\000\000\000\001\000\000\000\000\000\000\000M\000\000\000\000\000\000\000\034\000\000\000,\000\000\000\003\000\000\000;\002\000\000\000\000\000\000\000\000\000\000\007\000\000\000,\000\000\000\014\000\000\000\375\000\000\000\000\000\000\000\006\000\000\000\000\000\000\000\000\000\000\000\002\000\000\000\001\000\000\000A\003\000\000\000\000\000\000\000\000\000\000\000\000\000\000\t\000\000\000x\001\000\000S\000\000\000\235\003\000\000\227\000\000\000\035\000\000\000\006\000\000\000\331\001\000\000\000\000\000\000}\000\000\000\000\000\000\000\034\000\000\000\035\000\000\000\014\000\000\000\312\002\000\000\243\001\000\000\023\000\000\000L\000\000\000\n\000\000\000\003\000\000\000\000\000\000\000\027\000\000\000\002\000\000\000\001\000\000\000x\001\000\000+\000\000\000S\003\000\000\261\000\000\000\000\000\000\000 \000\000\000\000\000\000\000\034\000\000\000\003\000\000\000\000\000\000\000\004\000\000\000i\000\000\000a\000\000\000\023\000\000\000\320\002\000\000\010\000\000\000\003\000\000\000\000\000\000\000\004\000\000\000=\000\000\0001\000\000\000\003\000\000\000\340\003\000\000\n\000\000\000\000\000\000\000\002\000\000\000\001\000\000\000/\000\000\000-\002\000\000\002\000\000\000\001\000\000\000\214\001\000\000\n\000\000\000\t\000\000\000&\001\000\000\000\000\000\000\004\000\000\000\005\000\000\000\340\001\000\000\004\000\000\000\005\000\000\000\205\001\000\000\000\000\000\000Q\001\000\000\000\000\000\000\002\000\000\000\001\000\000\000\\\001\000\000!\000\000\000\003\000\000\000\340\003\000\000\271\003\000\0003\000\000\000!\000\000\000\000\000\000\000\003\000\000\000\000\000\000\000\004\000\000\000\005\000\000\0001\000\000\000\n\000\000\000&\000\000\000\240\000\000\000;\002\000\000\002\000\000\000\001\000\000\000\005\000\000\000\271\002\000\000\n\000\000\000\000\000\000\000:\000\000\000M\000\000\0000\000\000\000\000\000\000\000\026\000\000\000\275\000\000\000\016\000\000\000\003\000\000\000\340\003\000\000%\000\000\000\021\000\000\000\271\003\000\0003\000\000\000\002\000\000\000\001\000\000\000\214\001\000\000\000\000\000\000\000\000\000\000\023\000\000\000K\002\000\000a\000\000\000\023\000\000\000\000\000\000\000\010\000\000\000\000\000\000\000\004\000\000\000\000\000\000\000\000\000\000\000)\000\000\000.\000\000\000\250\000\000\000\014\000\000\000\212\000\000\000\211\002\000\000\006\000\000\000\250\000\000\000\t\000\000\000\004\000\000\000\006\000\000\000\000\000\000\000\007\000\000\000\000\000\000\000\032\000\000\000\006\000\000\000\000\000\000\000\"\000\000\000\235\000\000\000\002\000\000\000\001\000\000\000\003\000\000\000\340\003\000\000\004\000\000\000=\000\000\0001\000\000\000\000\000\000\000\020\000\000\000x\001\000\000\003\000\000\000\000\000\000\000\000\000\000\000\026\000\000\000\003\000\000\000\306\002\000\000\002\000\000\000\001\000\000\000\003\000\000\000\000\000\000\000\032\000\000\000)\000\000\000\000\000\000\000\004\000\000\000\005\000\000\000\000\000\000\000\003\003\000\000\000\000\000\000\010\000\000\000#\000\000\000\031\000\000\000\322\000\000\000;\000\000\000\222\000\000\000+\000\000\000L\000\000\000\004\000\000\000\000\000\000\000\356\000\000\000\003\000\000\000\000\000\000\000\002\000\000\000\001\000\000\000\000\000\000\000\004\000\000\000\t\000\000\000\323\000\000\000\002\000\000\000\001\000\000\000\014\000\000\000\000\000\000\000\002\000\000\000\001\000\000\000~\000\000\0004\000\000\000\005\000\000\000\316\001\000\000.\000\000\000\000\000\000\000\000\000\000\000\002\000\000\000\001\000\000\000\006\000\000\000\004\000\000\000\003\000\000\000\000\000\000\000\004\000\000\000\014\000\000\000\000\000\000\000\027\000\000\000\r\000\000\000\251\000\000\000\"\000\000\000k\000\000\000\004\000\000\000\003\000\000\000\000\000\000\000\004\000\000\000\014\000\000\000\000\000\000\000`\000\000\000\r\000\000\0003\002\000\000\002\000\000\000\001\000\000\000=\000\000\000Y\001\000\000\206\002\000\000\024\000\000\000\013\000\000\000\005\000\000\000\021\000\000\000\002\000\000\000\001\000\000\000\010\000\000\000\003\000\000\0006\000\000\000\000\000\000\000\000\000\000\000~\000\000\000>\000\000\000\000\000\000\000$\000\000\000\022\000\000\000\006\000\000\000\237\001\000\000w\000\000\000\r\000\000\000\322\002\000\000\002\000\000\000\001\000\000\000\010\000\000\000\003\000\000\000y\000\000\000\000\000\000\000\000\000\000\000~\000\000\000k\000\000\000\000\000\000\000$\000\000\000\022\000\000\000\006\000\000\000\237\001\000\000\036\000\000\000\r\000\000\000\000\000\000\000\002\000\000\000\001\000\000\000\025\000\000\000\005\000\000\0004\000\000\000\020\000\000\000\005\000\000\000\000\000\000\000\034\000\000\000\032\000\000\000\020\000\000\000\000\000\000\000\002\000\000\000\001\000\000\000x\001\000\000\000\000\000\000\020\000\000\000\003\000\000\0006\000\000\000\000\000\000\000\007\000\000\000\000\000\000\000=\000\000\000\010\000\000\000\005\000\000\000\000\000\000\000\000\000\000\000\271\000\000\000\r\000\000\000\252\000\000\000\000\000\000\000\002\000\000\000\001\000\000\000\000\000\000\000\"\000\000\000^\000\000\000\000\000\000\000,\000\000\000\003\000\000\000\000\000\000\000C\000\000\000\000\000\000\000\002\000\000\000\001\000\000\000\005\000\000\000\000\000\000\000\004\000\000\000\003\000\000\000\000\000\000\000\'\000\000\000\000\000\000\000j\002\000\000$\000\000\000\003\000\000\000E\003\000\000\004\000\000\000\014\000\000\000\000\000\000\000\034\000\000\000$\000\000\000\000\000\000\000\000\000\000\000\000\000\000\000\002\000\000\000\001\000\000\000.\000\000\0001\000\000\000\251\000\000\000}\000\000\000x\001\000\000\227\001\000\000\007\002\000\000\002\000\000\000\001\000\000\000\007\000\000\000\t\000\000\000\013\000\000\000\010\000\000\000$\001\000\000\006\000\000\000\000\000\000\000\000\000\000\000\000\000\000\000>\000\000\000\000\000\000\000\004\000\000\000h\003\000\000\000\000\000\000\000\000\000\000\035\001\000\0000\002\000\000\000\000\000\000\007\000\000\000\006\000\000\000Q\003\000\000k\000\000\000\000\000\000\000\004\000\000\000h\003\000\000\000\000\000\000\002\000\000\000\001\000\000\000\000\000\000\000<\000\000\000{\000\000\000\000\000\000\000\000\000\000\000\003\000\000\000\000\000\000\000\021\000\000\000*\000\000\000\000\000\000\000\002\000\000\000\001\000\000\000x\001\000\000\243\000\000\000\004\000\000\000\003\000\000\000\000\000\000\000L\001\000\000\000\000\000\000\003\000\000\000\000\000\000\000\000\000\000\000\016\000\000\000\000\000\000\000\010\000\000\000\005\000\000\000\000\000\000\000\000\000\000\000&\000\000\000\000\000\000\000\030\000\000\000(\000\000\000\017\000\000\000\006\000\000\000\000\000\000\000$\000\000\000\003\000\000\000\000\000\000\000\004\000\000\000\003\000\000\000U\000\000\000\000\000\000\000\r\000\000\000\000\000\000\000\002\000\000\000\001\000\000\000/\000\000\000\023\000\000\0008\000\000\000\243\000\000\000\027\000\000\000\006\000\000\000\000\000\000\000\004\000\000\000\000\000\000\000\006\000\000\000\000\000\000\000 \000\000\000\000\000\000\000\006\000\000\000\000\000\000\000\007\000\000\000\006\000\000\000\000\000\000\000\010\000\000\000\003\000\000\000\000\000\000\000\000\000\000\000\002\000\000\000\001\000\000\000\t\000\000\000C\001\000\000\006\000\000\000\364\002\000\000\231\001\000\000\020\000\000\000\014\000\000\000\000\000\000\000\000\000\000\000\334\001\000\000\016\000\000\000.\000\000\0001\000\000\000#\001\000\000\212\003\000\000\027\000\000\000\004\000\000\000\003\000\000\000U\000\000\000G\002\000\000\020\000\000\000\003\000\000\000\265\002\000\000\213\001\000\000\003\000\000\000\000\000\000\000\000\000\000\000X\000\000\000d\002\000\000\007\000\000\000\221\000\000\000\002\000\000\000\001\000\000\000\017\000\000\000\000\000\000\000\005\000\000\000\333\002\000\000Q\003\000\000\010\000\000\000\005\000\000\000s\001\000\000$\001\000\000\002\000\000\000\001\000\000\000\022\000\000\000\'\000\000\000\000\000\000\000$\002\000\000\010\000\000\000\221\000\000\000\007\000\000\000d\002\000\000\002\000\000\000\001\000\000\000\010\000\000\000\221\000\000\000\013\000\000\000\005\000\000\000\204\000\000\000\010\000\000\000\002\000\000\000\001\000\000\000\000\000\000\000\r\000\000\000]\000\000\000\026\002\000\000.\000\000\0001\000\000\000#\001\000\000\002\000\000\000\001\000\000\000@\000\000\0005\000\000\000\020\000\000\000\005\000\000\000\013\001\000\000\006\000\000\000\000\000\000\000r\001\000\000\007\000\000\000,\000\000\000\003\000\000\000\265\002\000\000\213\001\000\000\213\000\000\000\n\000\000\000\003\000\000\0003\001\000\000\004\000\000\000\002\000\000\000\001\000\000\000\036\000\000\000\334\001\000\000\010\000\000\000\003\000\000\000\000\000\000\000\002\000\000\000\001\000\000\000x\001\000\000\010\000\000\000\005\000\000\000\307\001\000\000\"\000\000\000\021\000\000\000\t\000\000\000\000\000\000\000\006\000\000\000\000\000\000\000\n\000\000\000\003\000\000\000\000\000\000\000\020\000\000\000\003\000\000\000\000\000\000\000\000\000\000\000\007\000\000\000\003\000\000\000\000\000\000\000\002\000\000\000\001\000\000\000\216\000\000\000D\000\000\000\334\001\000\000g\001\000\000\021\000\000\000\017\000\000\000\\\000\000\000\000\000\000\000}\000\000\000\000\000\000\000\002\000\000\000\001\000\000\000\005\000\000\000\013\000\000\000\000\000\000\000\021\000\000\000\000\000\000\000\t\000\000\000\003\000\000\000\212\003\000\000\274\000\000\000\005\002\000\000\024\000\000\000\002\000\000\000\001\000\000\000\334\001\000\000\027\000\000\000\'\003\000\000F\000\000\000;\003\000\000\351\001\000\000\t\000\000\000\023\000\000\000\t\000\000\000T\001\000\000\021\000\000\000*\000\000\000}\000\000\000d\000\000\000\002\000\000\000\001\000\000\000\004\000\000\000\334\001\000\0005\000\000\000\203\001\000\000@\000\000\000\023\000\000\000%\000\000\000\003\000\000\000\000\000\000\000\246\002\000\000>\000\000\000\010\000\000\000\003\000\000\000\301\000\000\000\027\000\000\000)\000\000\000\265\001\000\000\t\000\000\000\023\000\000\000\003\000\000\000\330\000\000\000\000\000\000\000\027\000\000\000\016\000\000\000\014\000\000\000y\000\000\000\000\000\000\000\004\000\000\000\325\000\000\000\010\000\000\000\006\000\000\000\000\000\000\000=\002\000\000h\000\000\000\000\000\000\000\000\000\000\000\r\000\000\000a\001\000\000\t\000\000\000=\000\000\000\021\000\000\000 \000\000\000\003\000\000\000\000\000\000\000\000\000\000\000\004\000\000\000\005\000\000\000\000\000\000\000\000\000\000\000\002\000\000\000\001\000\000\000\334\001\000\000\253\001\000\000\026\000\000\000\003\000\000\000\273\001\000\000x\001\000\000\243\000\000\000&\000\000\000\000\000\000\000\024\000\000\0005\000\000\000\010\000\000\000\000\000\000\000\000\000\000\000@\000\000\000\000\000\000\000\000\000\000\000\017\000\000\000\006\000\000\000\000\000\000\000\000\000\000\000j\000\000\000\344\000\000\000\002\000\000\000\001\000\000\000j\000\000\000\344\000\000\000\027\000\000\000\010\000\000\000=\000\000\000\264\001\000\000\000\000\000\000\r\000\000\000\314\000\000\000a\000\000\000\002\000\000\000\001\000\000\000\000\000\000\000\000\000\000\000+\001\000\000\000\000\000\000\030\000\000\000\n\000\000\000z\003\000\000\004\000\000\000\334\001\000\000\014\000\000\000\000\000\000\000\r\000\000\000|\003\000\000\010\000\000\000\006\000\000\000\364\002\000\000\000\000\000\0005\000\000\000X\003\000\000\037\000\000\000\005\000\000\000\307\001\000\000\000\000\000\000\007\000\000\000\000\000\000\000\000\000\000\000\006\000\000\000\000\000\000\000\010\000\000\000\002\000\000\000\001\000\000\0007\000\000\000[\000\000\000\000\000\000\000\320\002\000\000\221\000\000\000 \000\000\000\000\000\000\000\000\000\000\000\003\000\000\000\213\001\000\000\002\000\000\000\001\000\000\000\005\000\000\000\000\000\000\000\276\000\000\000\010\000\000\000\000\000\000\000\232\000\000\000\000\000\000\000\004\000\000\000\003\000\000\000\000\000\000\000\000\000\000\000\002\000\000\000\001\000\000\000\364\000\000\000\003\000\000\000\001\001\000\000\016\000\000\000\010\000\000\000#\000\000\000\031\000\000\000u\000\000\000;\000\000\000\017\000\000\000\006\000\000\000\000\000\000\000\000\000\000\000\n\000\000\000\003\000\000\000\223\000\000\000\356\001\000\000\020\000\000\000\343\000\000\000\000\000\000\000,\000\000\000\000\000\000\000\002\000\000\000\001\000\000\000@\000\000\000\364\000\000\000\016\000\000\000\000\000\000\000\n\000\000\000\005\000\000\000\000\000\000\000$\000\000\000\000\000\000\000\000\000\000\000\n\000\000\000\006\000\000\000L\003\000\000\000\000\000\000\030\000\000\000\006\000\000\000\000\000\000\000\004\000\000\000\000\000\000\000\r\000\000\000L\002\000\000\020\000\000\000\003\000\000\000\000\000\000\000\004\000\000\000\000\000\000\000\000\000\000\000^\000\000\000\000\000\000\000\000\000\000\000\007\000\000\000\000\000\000\000\364\000\000\000\020\000\000\000\003\000\000\000y\000\000\000\250\000\000\000\010\000\000\000\240\000\000\000\000\000\000\000c\000\000\000N\000\000\000\003\000\000\000\274\003\000\000\002\000\000\000\001\000\000\000\006\000\000\000\325\001\000\000\346\000\000\000\320\002\000\000\023\000\000\000\003\000\000\000\000\000\000\000\366\000\000\000\010\000\000\000\000\000\000\000\002\000\000\000\001\000\000\000\000\000\000\0004\000\000\000P\000\000\000\006\000\000\000\000\000\000\000\002\000\000\000\001\000\000\0007\000\000\000\003\000\000\000\000\000\000\000\010\000\000\000\000\000\000\000\021\001\000\000\334\001\000\000\026\000\000\000\357\001\000\000\031\001\000\000\t\000\000\000\023\000\000\000\002\000\000\000\001\000\000\000\000\000\000\000\364\000\000\000\003\000\000\000\000\000\000\000\001\001\000\000I\001\000\000\030\000\000\000C\000\000\000\n\000\000\000\r\000\000\000\313\002\000\000\002\000\000\000\001\000\000\000\006\000\000\000\000\000\000\000\000\000\000\000\004\000\000\000\003\000\000\000\000\000\000\000a\000\000\000\254\001\000\000:\000\000\000\023\000\000\000\364\000\000\000\000\000\000\000\017\000\000\000\005\000\000\000\000\000\000\000\030\000\000\000)\000\000\000\034\000\000\000\021\000\000\000g\001\000\000\r\000\000\000\000\000\000\000\002\000\000\000\001\000\000\000\364\000\000\000\013\000\000\000\000\000\000\000\n\000\000\000\014\000\000\0003\003\000\000\000\000\000\000\000\000\000\000\004\000\000\000\006\000\000\000\004\000\000\000\003\000\000\000\314\001\000\000\000\000\000\000\010\000\000\000\005\000\000\000\002\000\000\000\001\000\000\000U\000\000\000\307\001\000\000\002\000\000\000\001\000\000\000\003\000\000\0006\000\000\000\234\000\000\000\004\000\000\000\006\000\000\000\000\000\000\0000\000\000\000\000\000\000\000\000\000\000\000\000\000\000\000.\000\000\000$\000\000\000\003\000\000\000\212\003\000\000\037\000\000\000\r\000\000\000t\002\000\000\000\000\000\000\002\000\000\000\001\000\000\000\025\000\000\000\364\000\000\000\212\003\000\000\027\000\000\000\232\000\000\000\022\000\000\000\000\000\000\000\006\000\000\000\364\002\000\000\000\000\000\000\000\000\000\000\002\000\000\000\001\000\000\000\020\000\000\000x\001\000\000\020\000\000\000\000\000\000\000\000\000\000\000\020\000\000\000\000\000\000\000\000\000\000\000\000\000\000\000\"\000\000\000\214\000\000\000\300\000\000\000/\001\000\000\021\000\000\000\020\000\000\000\000\000\000\000\334\001\000\000e\000\000\000\002\000\000\000\001\000\000\000\364\000\000\000\000\000\000\000\000\000\000\000\020\000\000\000\003\000\000\000\000\000\000\000\002\000\000\000\001\000\000\000\000\000\000\000\000\000\000\000\013\000\000\000\003\000\000\000U\000\000\000\212\003\000\000\002\000\000\000\001\000\000\000\036\000\000\000\003\000\000\000\002\000\000\000\001\000\000\0001\001\000\000\013\000\000\000\005\000\000\000\312\000\000\000\000\000\000\000\002\000\000\000\001\000\000\000\024\000\000\000\000\000\000\0002\000\000\000\311\001\000\000-\000\000\000x\001\000\000\016\000\000\000s\000\000\000\004\000\000\000\201\000\000\000\000\000\000\000\232\000\000\000@\000\000\000\023\000\000\000\n\000\000\000\003\000\000\000\000\000\000\000\340\003\000\000\210\000\000\000\n\000\000\000\005\000\000\000\000\000\000\000\000\000\000\000\000\000\000\000\002\000\000\000\001\000\000\0007\000\000\000.\000\000\000\313\000\000\000\332\003\000\000\023\000\000\000\005\000\000\000\000\000\000\000\017\000\000\000\302\000\000\000W\000\000\000\000\000\000\000\007\000\000\000\006\000\000\000\000\000\000\000y\000\000\000\000\000\000\000\010\000\000\000\340\000\000\000m\000\000\000\002\000\000\000\001\000\000\000\006\000\000\000\000\000\000\000\016\000\000\000\032\000\000\000\000\000\000\000\364\000\000\000\021\001\000\000\000\000\000\000\002\000\000\000\001\000\000\000\246\000\000\000\000\000\000\000\000\000\000\000\000\000\000\000\007\000\000\000\000\000\000\000\000\000\000\000`\000\000\000\n\000\000\000\t\000\000\000&\001\000\000)\000\000\000\000\000\000\000\020\000\000\000\003\000\000\000\000\000\000\000\002\000\000\000\001\000\000\000/\000\000\000\005\000\000\000R\003\000\000\207\001\000\000\000\000\000\000\000\000\000\000\004\000\000\000\000\000\000\000\000\000\000\000\n\000\000\000>\000\000\000\207\002\000\000\000\000\000\000\323\002\000\000\261\000\000\000\034\000\000\000\000\000\000\000\000\000\000\000\002\000\000\000\001\000\000\000=\000\000\000\020\000\000\000\003\000\000\000\233\002\000\000\016\000\000\000/\000\000\000)\000\000\000\r\000\000\000\000\000\000\000\017\000\000\000\000\000\000\000\000\000\000\000\002\000\000\000\001\000\000\000\336\000\000\000\000\000\000\000\002\000\000\000\001\000\000\000\010\000\000\000\005\000\000\000\264\001\000\000\004\000\000\000\000\000\000\000\002\000\000\000\001\000\000\000\016\000\000\000\t\000\000\000?\000\000\000\265\001\000\0008\000\000\000\010\000\000\000\000\000\000\000\000\000\000\000\013\000\000\000\007\000\000\000\017\000\000\000^\000\000\000\000\000\000\000\010\000\000\000\000\000\000\000c\000\000\000\210\000\000\000+\000\000\000\000\000\000\000\n\000\000\000\246\002\000\000>\000\000\000\004\000\000\000\003\000\000\000\000\000\000\000\002\000\000\000\001\000\000\000\003\000\000\000-\001\000\000\366\000\000\000\000\000\000\0002\000\000\000\325\000\000\000)\000\000\000\000\000\000\0005\000\000\000\271\003\000\000$\000\000\000\000\000\000\000\002\000\000\000\001\000\000\000\000\000\000\0007\000\000\000\006\000\000\000\000\000\000\000\000\000\000\000\017\000\000\000\000\002\000\000\000\000\000\000\t\000\000\000\017\000\000\000\006\000\000\000\000\000\000\000\000\000\000\000\004\000\000\000\000\000\000\000\n\000\000\000\003\000\000\000\223\000\000\000\356\001\000\0005\000\000\000\000\000\000\000\002\000\000\000\001\000\000\000\000\000\000\000\000\000\000\000\353\002\000\000\002\000\000\000\001\000\000\000\020\000\000\000\000\000\000\000\263\000\000\000\264\000\000\000\222\000\000\000\027\000\000\000\005\000\000\000\003\000\000\000\353\002\000\000\000\000\000\000\010\000\000\000\014\000\000\000\213\003\000\000\002\000\000\000\001\000\000\000\023\000\000\000\320\002\000\000\010\000\000\000p\000\000\000\277\000\000\000\003\000\000\000-\001\000\000\000\000\000\000\007\000\000\000\010\000\000\000u\000\000\000;\000\000\000\014\000\000\0006\000\000\000\004\000\000\000.\000\000\000-\001\000\000\000\000\000\000\002\000\000\000\001\000\000\000\000\000\000\000\013\000\000\000\006\000\000\000\004\000\000\000\003\000\000\000\000\000\000\000\000\000\000\000\016\000\000\000\017\000\000\000\000\000\000\000\003\000\000\000\000\000\000\000\000\000\000\000\007\000\000\000\032\002\000\000\000\000\000\000\000\000\000\000\021\000\000\000\000\000\000\000\002\000\000\000\001\000\000\000\252\002\000\000\013\000\000\000\005\000\000\000\010\000\000\000$\001\000\000\021\000\000\000m\001\000\000/\000\000\000\000\001\000\000\000\000\000\0008\000\000\000\305\003\000\000\023\000\000\000\000\000\000\000\'\000\000\000\030\000\000\000\005\000\000\000\r\000\000\000\000\000\000\000\002\000\000\000\001\000\000\000\003\000\000\000\001\001\000\000\016\000\000\000\005\000\000\000u\001\000\000\010\000\000\000\003\000\000\000\000\000\000\000\334\003\000\000\027\000\000\000[\000\000\000\250\000\000\000\000\000\000\000\021\000\000\000\003\000\000\000\000\000\000\000\024\000\000\000\003\000\000\000y\000\000\000\002\000\000\000\001\000\000\000\000\002\000\000\000\000\000\000\002\000\000\000\001\000\000\000\007\000\000\0008\000\000\000D\000\000\000\014\000\000\000d\001\000\000\262\001\000\000&\001\000\000\004\000\000\0009\000\000\0006\000\000\000\020\003\000\000}\000\000\000\000\000\000\000\002\000\000\000\001\000\000\000\000\000\000\000\225\000\000\000\000\002\000\000\002\000\000\000\001\000\000\000\225\000\000\000\003\000\000\000\000\000\000\000:\000\000\000\t\000\000\000%\000\000\000\000\000\000\000\313\000\000\000\000\000\000\000\002\000\000\000\001\000\000\000\024\000\000\000\000\002\000\000\000\000\000\000&\000\000\000\000\000\000\000\r\000\000\000\314\000\000\000,\000\000\000\006\000\000\000\276\002\000\000\000\000\000\000\026\000\000\000\014\000\000\000\000\000\000\000\000\000\000\000\007\000\000\000\006\000\000\000\000\000\000\000\000\000\000\000%\002\000\000\030\000\000\000\000\000\000\000\003\000\000\000\000\000\000\000g\002\000\000\005\000\000\000$\001\000\000\r\000\000\000\252\000\000\000\020\000\000\000/\000\000\000\005\000\000\000\027\000\000\000\007\000\000\000-\000\000\000\211\002\000\000\010\000\000\000\000\000\000\000\r\000\000\000\000\000\000\000\002\000\000\000\001\000\000\000\235\000\000\000\005\001\000\000\004\000\000\000\002\000\000\000\001\000\000\000/\000\000\000\013\001\000\000\006\000\000\000\004\000\000\000\003\000\000\000E\001\000\000\000\000\000\000\000\000\000\000\000\000\000\000\027\000\000\000{\000\000\000\022\000\000\000\010\000\000\000\262\001\000\000\352\001\000\000Q\003\000\000\000\000\000\000\r\000\000\000\000\000\000\000T\002\000\0005\000\000\000\000\000\000\000\005\000\000\000\000\000\000\000\004\000\000\000\263\001\000\000@\000\000\000\000\000\000\000\003\000\000\000\000\000\000\000\326\000\000\000\000\000\000\000\017\000\000\000<\003\000\000>\000\000\000\000\000\000\000\000\000\000\000\n\000\000\000\333\003\000\000\000\000\000\000\000\000\000\000\002\000\000\000\001\000\000\000\006\000\000\000\305\001\000\000\000\000\000\000\000\000\000\000\000\002\000\000\000\000\000\000\020\000\000\000\003\000\000\000\000\000\000\000\250\000\000\000\010\000\000\000^\000\000\000\313\000\000\000-\000\000\000\211\002\000\000\007\000\000\000\000\000\000\000\014\000\000\000d\001\000\000C\000\000\000\025\000\000\000\005\000\000\000\000\000\000\000\027\000\000\000\010\000\000\000\262\001\000\000\264\001\000\000\r\000\000\000\000\000\000\000\030\000\000\000\005\000\000\000\271\000\000\000\317\002\000\000\007\000\000\000\030\000\000\000\005\000\000\000\271\000\000\000r\000\000\000\023\000\000\000(\000\000\000\n\000\000\000\t\000\000\000&\001\000\000\000\000\000\000\211\000\000\000)\000\000\000\027\000\000\000\t\000\000\000\003\000\000\000\223\000\000\000\356\001\000\000\002\000\000\000\001\000\000\000\t\000\000\000\000\001\000\000\016\000\000\000\n\000\000\000\005\000\000\000\276\000\000\000Q\000\000\000\003\000\000\000-\001\000\000\366\000\000\000\r\000\000\000_\002\000\000\n\000\000\000\003\000\000\000\000\000\000\000\356\001\000\000\000\000\000\000:\000\000\000\000\000\000\000D\000\000\000\014\000\000\000d\001\000\000\000\000\000\000\000\000\000\000\003\000\000\000\000\000\000\000\010\000\000\000\000\000\000\000\010\000\000\000.\000\000\000\215\001\000\000\000\000\000\000\000\000\000\000\002\000\000\000\001\000\000\000\026\000\000\000\003\000\000\000\037\002\000\000\273\001\000\000\000\002\000\000\016\000\000\000C\001\000\000\t\000\000\000\006\000\000\0009\002\000\000\000\000\000\000\000\000\000\000\003\000\000\000-\001\000\000\366\000\000\0004\000\000\000_\002\000\000\024\000\000\000<\003\000\000>\000\000\000\250\000\000\000\020\000\000\000\005\000\000\000\013\001\000\000T\003\000\000\'\000\000\000\002\000\000\000\001\000\000\000\026\000\000\000\003\000\000\000T\000\000\000\273\001\000\000Z\000\000\000l\001\000\000\016\000\000\000\000\000\000\000\t\000\000\000\000\002\000\000\021\000\000\000\\\000\000\000\036\000\000\000\014\000\000\000V\001\000\000\027\000\000\000\002\000\000\000\001\000\000\000\237\000\000\000\000\000\000\0004\000\000\000.\000\000\000\250\000\000\000T\003\000\0000\000\000\000\024\000\000\000.\000\000\000\250\000\000\000\003\000\000\000-\001\000\000\366\000\000\000_\002\000\000\013\000\000\000\022\000\000\000\261\000\000\000\257\003\000\000\002\000\000\000\001\000\000\000P\000\000\000\000\000\000\000\000\000\000\000\014\001\000\000\021\000\000\000\261\003\000\000\000\000\000\000\000\002\000\000\000\000\000\000\002\000\000\000\001\000\000\000\007\000\000\000\000\000\000\000\350\000\000\000\020\000\000\000\003\000\000\000\000\000\000\000\016\000\000\000\000\000\000\000\n\000\000\000\000\000\000\000$\002\000\0005\000\000\000%\000\000\000/\000\000\000\000\000\000\000\n\000\000\000\005\000\000\000\000\000\000\000$\000\000\000\r\000\000\000\000\000\000\000\002\000\000\000\001\000\000\000!\000\000\000\000\000\000\000\230\000\000\000.\000\000\0001\002\000\000\002\000\000\000\001\000\000\000\020\000\000\000&\000\000\000q\001\000\000\310\001\000\000\301\000\000\000,\000\000\000!\000\000\0009\000\000\000\000\000\000\000\337\000\000\000\000\000\000\000\002\000\000\000\001\000\000\000\000\000\000\000\000\000\000\000\000\000\000\000\021\000\000\000h\000\000\000\000\000\000\000\n\000\000\000\t\000\000\000\003\000\000\000=\001\000\000\000\000\000\000\005\000\000\000\210\000\000\000\227\000\000\000\036\000\000\000\005\000\000\000\000\000\000\000\035\002\000\000,\000\000\000\260\003\000\000\002\000\000\000\001\000\000\000\310\000\000\000\000\000\000\000\000\000\000\000\245\002\000\000\310\000\000\000\000\000\000\000\000\000\000\000J\000\000\000\000\000\000\000\002\000\000\000\001\000\000\000\030\000\000\000\006\000\000\000\251\000\000\000~\001\000\0003\002\000\000\r\000\000\000d\000\000\000\002\000\000\000\001\000\000\000\000\000\000\0005\000\000\000\000\000\000\000\000\000\000\000>\000\000\000\326\000\000\000\000\000\000\000g\000\000\000T\003\000\000y\000\000\000\027\000\000\000\351\001\000\000\010\000\000\000\003\000\000\000-\001\000\000\366\000\000\000\002\000\000\000\001\000\000\000.\000\000\000\016\002\000\000\020\000\000\000\003\000\000\000\000\000\000\000\241\000\000\000\000\000\000\000\002\000\000\000\001\000\000\000z\000\000\000\000\000\000\000\000\000\000\000K\002\000\000\003\000\000\000\000\000\000\000T\003\000\000 \000\000\000\003\000\000\000\000\000\000\000\016\000\000\000C\000\000\000 \000\000\000\010\000\000\000\005\000\000\000\000\000\000\000`\000\000\000\000\000\000\000\t\000\000\000!\000\000\000\010\000\000\000[\000\000\000\000\000\000\000\021\000\000\000A\000\000\000\250\001\000\000,\000\000\000\030\000\000\000\006\000\000\000\000\000\000\000w\000\000\000\r\000\000\000\000\000\000\000\002\000\000\000\001\000\000\000\006\000\000\000\000\000\000\000\010\000\000\000\003\000\000\000-\001\000\000\366\000\000\000\337\002\000\000\006\000\000\000\364\002\000\000\000\000\000\000\004\000\000\000h\003\000\000\000\000\000\000\n\000\000\000\232\002\000\000\002\000\000\000\001\000\000\000\003\000\000\0006\000\000\000.\000\000\000\000\000\000\000\004\000\000\000\005\000\000\000\000\000\000\0003\000\000\0002\000\000\000s\000\000\000\260\003\000\000\002\000\000\000\001\000\000\000=\000\000\000\000\000\000\000Q\000\000\000\003\000\000\000\353\002\000\000\004\000\000\000\003\000\000\000k\000\000\000\n\000\000\000\005\000\000\000\000\000\000\000\002\000\000\000\001\000\000\000\003\000\000\000\027\002\000\000\366\000\000\000\002\000\000\000\001\000\000\000$\002\000\000\n\000\000\000\003\000\000\000\000\000\000\000\000\000\000\000\004\000\000\000p\002\000\000\026\000\000\000\003\000\000\000\000\000\000\000\000\000\000\000\002\000\000\000\001\000\000\000\006\000\000\0003\001\000\000r\000\000\000\033\000\000\000&\000\000\000\240\000\000\000\000\000\000\000\000\000\000\0003\000\000\000\370\002\000\000D\000\000\000\022\000\000\000\006\000\000\000\000\000\000\000\000\000\000\000\013\000\000\000\016\000\000\000)\000\000\000g\000\000\000\000\000\000\000\217\003\000\000\000\000\000\000\365\000\000\000\002\000\000\000\001\000\000\000\003\000\000\000\000\000\000\000\000\000\000\000\002\000\000\000\001\000\000\000F\001\000\000\000\000\000\000\033\000\000\000\005\000\000\000\000\000\000\000>\000\000\000\250\000\000\000\024\001\000\0001\000\000\000\007\000\000\000\t\000\000\000\013\000\000\000\216\000\000\000\021\000\000\000\020\000\000\000\003\000\000\000\366\000\000\000\002\000\000\000\001\000\000\000\000\000\000\000\014\000\000\000a\002\000\000\002\000\000\000\001\000\000\000\020\000\000\000\345\000\000\000\027\000\000\000\003\000\000\000 \001\000\000\000\000\000\000\000\000\000\000\000\000\000\000\002\000\000\000\001\000\000\000\000\000\000\000\000\000\000\000\000\000\000\000\005\000\000\000F\000\000\000\004\001\000\000\002\000\000\000\001\000\000\000p\002\000\000\013\000\000\000\005\000\000\000\000\000\000\000\t\000\000\000~\000\000\000\211\000\000\000\006\000\000\000\000\000\000\000%\000\000\000\000\000\000\0004\000\000\000d\000\000\000\002\000\000\000\001\000\000\000\007\000\000\000\003\000\000\000I\000\000\000\312\000\000\000\000\000\000\000\000\000\000\000p\002\000\000\017\000\000\000\006\000\000\000\000\000\000\000\000\000\000\000\007\000\000\000K\002\000\000\002\000\000\000\001\000\000\000\005\000\000\000\000\000\000\000\r\000\000\000A\000\000\000\002\000\000\000\001\000\000\000@\000\000\000\000\000\000\000\000\000\000\000\017\000\000\000\014\000\000\000y\000\000\000\000\000\000\000\010\000\000\000\003\000\000\000\000\000\000\000\000\000\000\000\007\000\000\000\026\000\000\000\014\000\000\000\000\000\000\000\000\000\000\000\002\000\000\000\001\000\000\000\230\000\000\000!\000\000\000\006\000\000\000\000\000\000\000-\000\000\000\003\000\000\000\000\000\000\000\002\000\000\000\001\000\000\000\000\000\000\000\016\000\000\000\002\000\000\000\001\000\000\000*\000\000\000\034\000\000\000>\000\000\000\211\000\000\000\002\000\000\000\001\000\000\000\000\000\000\000\t\000\000\000\013\000\000\000\n\000\000\000p\002\000\000\323\000\000\000/\000\000\000m\002\000\000\003\000\000\000\000\000\000\0006\002\000\000\002\000\000\000\001\000\000\000-\000\000\000\003\000\000\000\000\000\000\000\004\000\000\000\003\000\000\000\000\000\000\000\246\000\000\000\000\000\000\000\014\000\000\000\211\000\000\000\003\000\000\000\000\000\000\000\n\000\000\000p\002\000\000\r\000\000\000\000\000\000\000\025\000\000\000\000\000\000\000\002\000\000\000\001\000\000\000\000\000\000\000\014\000\000\000\022\000\000\000\021\000\000\000\002\000\000\000\001\000\000\000/\000\000\000i\000\000\000\000\000\000\000\000\000\000\000\000\000\000\000\r\000\000\000\000\000\000\000\016\000\000\000\003\000\000\000\000\000\000\000\000\000\000\000\025\000\000\000\003\000\000\000\000\000\000\000\000\000\000\000\000\000\000\000\000\000\000\000\016\000\000\000\003\000\000\000\000\000\000\000\000\000\000\000X\000\000\000.\000\000\000\004\003\000\000\000\000\000\000\016\000\000\000\010\000\000\000J\000\000\000\000\000\000\000-\000\000\000\003\000\000\000\333\001\000\000\026\000\000\000\005\000\000\000f\003\000\000\014\000\000\000\002\000\000\000\001\000\000\000\000\000\000\000,\000\000\0008\000\000\000\000\000\000\000\006\000\000\000\000\000\000\000\000\000\000\000\010\000\000\000\211\002\000\000\002\000\000\000\001\000\000\000N\001\000\000\020\000\000\000\006\000\000\000\356\001\000\000\010\000\000\000\250\002\000\000\002\000\000\000\001\000\000\000\036\000\000\000\006\000\000\000\000\000\000\000\'\000\000\000\003\000\000\000\333\001\000\000\010\000\000\000>\000\000\000\003\002\000\000\000\000\000\000\003\000\000\000\000\000\000\000 \000\000\000\010\000\000\000\003\000\000\000\356\001\000\000\000\000\000\000$\000\000\000\006\000\000\000\000\000\000\000\016\000\000\000\205\002\000\000P\000\000\000\n\000\000\000\003\000\000\0003\001\000\000Q\000\000\000\002\000\000\000\001\000\000\000$\000\000\000\003\000\000\000^\002\000\000\007\000\000\000\005\000\000\000\000\000\000\000\000\000\000\000\013\000\000\000p\002\000\000\006\000\000\000\276\002\000\0003\001\000\000\002\000\000\000\001\000\000\000\000\000\000\000\000\003\000\000\233\000\000\000\020\000\000\000\003\000\000\0001\001\000\000\007\000\000\000s\000\000\000\010\000\000\000\003\000\000\000\000\000\000\000\000\000\000\000\n\000\000\000\003\000\000\000\265\002\000\000\213\001\000\000\006\000\000\000I\000\000\000/\002\000\000\020\000\000\000\221\000\000\000\002\000\000\000\001\000\000\000\000\000\000\000\002\000\000\000\001\000\000\000\000\000\000\000\013\000\000\000q\000\000\000\266\001\000\000\270\001\000\000\002\000\000\000\001\000\000\000\201\000\000\000\000\000\000\000K\000\000\000(\000\000\000\006\000\000\000\000\000\000\000\000\000\000\000\025\000\000\000\000\000\000\000\235\003\000\000\014\000\000\0006\000\000\000\000\000\000\000c\003\000\000\002\000\000\000\001\000\000\000\007\000\000\000\025\000\000\000\023\000\000\000C\000\000\000\021\000\000\000c\003\000\000\032\000\000\000\000\000\000\000:\001\000\000\006\000\000\000\000\000\000\000\005\000\000\000\021\000\000\000\000\000\000\000\002\000\000\000\001\000\000\000F\000\000\000\000\000\000\000\314\000\000\000\002\000\000\000\001\000\000\000\000\000\000\000\005\000\000\000$\001\000\000S\000\000\000\032\000\000\000\210\000\000\000\021\000\000\000\002\000\000\000\001\000\000\000\000\000\000\000\003\000\000\000\000\000\000\000\004\000\000\000-\002\000\000\002\000\000\000\001\000\000\000\000\000\000\000\002\000\000\000\001\000\000\000$\001\000\000\013\000\000\000\006\000\000\000\000\000\000\000]\003\000\000~\000\000\000\006\000\000\000\333\001\000\000\004\000\000\000k\000\000\000\000\000\000\000\000\000\000\000\000\000\000\000\n\000\000\000\006\000\000\000T\000\000\000\333\001\000\000\004\000\000\000\322\000\000\000\264\000\000\000b\000\000\0000\002\000\000\000\000\000\000\002\000\000\000\001\000\000\000\003\000\000\000\000\000\000\000\013\000\000\000\003\000\000\000\020\001\000\000\333\001\000\000\244\001\000\000\r\000\000\000\271\002\000\000h\000\000\000\003\000\000\000I\000\000\000\333\001\000\000\r\000\000\000\000\000\000\000\002\000\000\000\001\000\000\000\020\000\000\000\000\000\000\000\000\000\000\000\027\000\000\000$\001\000\000\006\000\000\000\000\000\000\000\000\000\000\000\002\000\000\000\001\000\000\000\007\000\000\000%\000\000\000\002\000\000\000\001\000\000\000\t\000\000\000\000\000\000\000\017\000\000\000\006\000\000\000\000\000\000\000\n\000\000\000\003\000\000\000\274\003\000\000\000\000\000\000\007\000\000\000\032\002\000\000\000\000\000\000\000\000\000\000\000\000\000\000$\003\000\000\000\000\000\000\006\000\000\000\000\000\000\000\\\002\000\000\004\000\000\000\000\000\000\000\002\000\000\000\001\000\000\000\025\000\000\000\235\002\000\000\275\000\000\000\206\002\000\000]\000\000\000\000\000\000\000~\000\000\000\t\000\000\000$\001\000\000\002\000\000\000\001\000\000\000\003\000\000\000\246\000\000\000\000\000\000\000\000\000\000\000\000\000\000\000\027\000\000\000\010\000\000\000\003\000\000\000\000\000\000\000\000\000\000\000\003\000\000\000\000\000\000\000\000\000\000\000\000\000\000\000\002\000\000\000\001\000\000\000\000\000\000\000\036\000\000\000\005\000\000\000\252\001\000\000\004\000\000\000\014\000\000\000\212\000\000\000\000\000\000\000\000\000\000\000\204\000\000\000e\000\000\000\003\000\000\000\000\000\000\000\020\000\000\000\007\000\000\000\000\000\000\000\034\000\000\000\036\000\000\000\237\000\000\000\000\000\000\000\014\000\000\000\000\000\000\000\002\000\000\000\001\000\000\000\t\000\000\000\374\000\000\000\025\000\000\000\321\001\000\000\002\000\000\000\001\000\000\000\000\000\000\000\000\000\000\000\371\000\000\000O\000\000\000\002\000\000\000\001\000\000\000\000\000\000\000\000\000\000\000\317\000\000\000\004\000\000\000\003\000\000\000\002\000\000\000\001\000\000\000\014\002\000\000M\002\000\000\002\000\000\000\001\000\000\000\000\000\000\000\000\000\000\000\000\000\000\000\000\000\000\000\007\000\000\000>\000\000\000<\001\000\000\002\000\000\000\001\000\000\000\000\000\000\000\000\000\000\000\027\000\000\000\n\000\000\000\016\000\000\000\000\000\000\000\204\000\000\000\006\000\000\000\000\000\000\000\n\000\000\000(\000\000\000\002\000\000\000\001\000\000\000\000\000\000\000\000\002\000\000\000\000\000\000\000\000\000\000{\001\000\000\002\000\000\000\001\000\000\000\000\000\000\000\000\000\000\000\013\000\000\000\010\000\000\000*\000\000\000\000\000\000\000\373\000\000\000\034\000\000\000\000\000\000\000\205\003\000\000\002\000\000\000\001\000\000\000\024\000\000\000\032\000\000\000\020\000\000\000=\000\000\000\004\002\000\000\000\000\000\000\014\000\000\000\022\000\000\000.\000\000\000\311\000\000\000\243\001\000\000\021\000\000\000\r\000\000\000\000\000\000\000U\002\000\000\002\000\000\000\001\000\000\000\005\000\000\0006\000\000\000\013\000\000\000\003\000\000\000\000\000\000\000L\001\000\000\000\000\000\000\002\000\000\000\001\000\000\000g\000\000\000\000\000\000\000\013\000\000\000\000\000\000\000\002\000\000\000\001\000\000\000\"\000\000\000/\000\000\000\000\000\000\000z\000\000\000\004\000\000\000=\000\000\000\000\000\000\000\037\000\000\000\005\000\000\000\000\000\000\000\002\000\000\000\001\000\000\000\006\000\000\000\000\000\000\000\016\000\000\000\006\000\000\000\000\000\000\000\000\000\000\000\"\003\000\000D\000\000\000\n\000\000\000\005\000\000\000&\001\000\000\004\000\000\000\003\000\000\000\003\002\000\000\010\000\000\000\003\000\000\000\000\000\000\000\000\000\000\000\006\000\000\000\000\000\000\000\000\000\000\000\306\000\000\000\000\000\000\000w\002\000\000\213\000\000\000\301\001\000\000\271\002\000\000\024\000\000\000\022\000\000\000\'\000\000\000C\000\000\0008\000\000\000\006\000\000\000\000\000\000\000\000\000\000\000\002\000\000\000\001\000\000\000\t\000\000\000\013\000\000\000\331\000\000\000\304\000\000\000\034\000\000\000\003\000\000\000\000\000\000\000\000\000\000\000\002\000\000\000\001\000\000\000\007\000\000\000\005\000\000\000y\000\000\000\243\001\000\000\021\000\000\000\000\000\000\000\'\000\000\000\013\000\000\000\003\000\000\000\265\002\000\000\213\001\000\000\002\000\000\000\001\000\000\000\000\000\000\000\310\001\000\000\000\000\000\000\"\000\000\000\310\001\000\000\000\000\000\000\004\000\000\000\003\000\000\000\000\000\000\000\000\000\000\000\016\000\000\000\003\000\000\000O\001\000\000\000\000\000\000\000\000\000\000j\001\000\000\265\002\000\000\010\000\000\000#\000\000\000\031\000\000\000\371\000\000\000O\000\000\000\021\001\000\000\000\000\000\000\002\000\000\000\001\000\000\000\025\000\000\0002\000\000\000\003\000\000\000\002\000\000\000\001\000\000\0001\001\000\000\003\000\000\000\223\000\000\000L\000\000\000\n\000\000\000>\000\000\000\000\000\000\000\003\000\000\000q\003\000\000`\000\000\000\034\000\000\000\027\000\000\000\005\000\000\000\010\000\000\000\003\000\000\000\265\002\000\000\213\001\000\000\002\000\000\000\001\000\000\000\003\000\000\000\000\000\000\000\013\000\000\000\000\000\000\000\004\000\000\000\342\000\000\000O\000\000\000 \000\000\000\035\001\000\000\020\000\000\000\003\000\000\0001\001\000\000\024\000\000\000\002\000\000\000\001\000\000\000\221\000\000\000\013\000\000\000\003\000\000\000\323\003\000\000\000\000\000\000\024\000\000\000\216\000\000\000\026\000\000\000\005\000\000\000\000\000\000\000\002\000\000\000\001\000\000\000\017\000\000\000\006\000\000\000\037\001\000\000\000\000\000\0003\000\000\0002\000\000\000\033\000\000\000\010\000\000\000.\000\000\000b\000\000\000p\000\000\000O\000\000\000\r\000\000\000)\003\000\000\002\000\000\000\001\000\000\000\n\000\000\000\342\000\000\000O\000\000\000\270\002\000\000f\002\000\0002\000\000\000\000\000\000\000[\000\000\000\250\000\000\000\n\000\000\000J\000\000\000\000\000\000\000\000\000\000\000\002\000\000\000\001\000\000\000\000\000\000\000\010\000\000\000\003\000\000\000Q\000\000\000\000\000\000\000\002\000\000\000\001\000\000\000\000\000\000\0002\000\000\000\003\000\000\000\206\001\000\000\004\000\000\000\312\000\000\000\000\000\000\000\002\000\000\000\001\000\000\000!\000\000\000\000\000\000\000\000\000\000\000\017\000\000\000\000\000\000\000\024\000\000\000v\000\000\000\000\000\000\000\002\000\000\000\001\000\000\000\t\000\000\000\013\000\000\000\003\000\000\000\330\000\000\000\272\001\000\000\000\000\000\000\002\000\000\000\001\000\000\000$\001\000\000\013\000\000\000\021\000\000\000\030\000\000\000\r\000\000\000\000\000\000\000\002\000\000\000\001\000\000\000\006\000\000\000\000\000\000\000\020\000\000\000\202\002\000\000\002\000\000\000\001\000\000\000\325\003\000\000\002\000\000\000\001\000\000\000\202\002\000\000\000\000\000\000\332\002\000\000\000\000\000\000\003\000\000\000\000\000\000\000\000\000\000\000\004\000\000\000\241\002\000\000\000\000\000\000\n\000\000\000\002\000\000\000\001\000\000\000\017\000\000\000I\000\000\000\000\000\000\000\365\000\000\000\003\000\000\000\000\000\000\000\000\000\000\000\004\000\000\000\003\000\000\000\000\000\000\000^\001\000\000g\000\000\000\000\000\000\000\027\001\000\000\002\000\000\000\001\000\000\000\212\002\000\000\000\000\000\000\000\000\000\000\003\000\000\000\002\000\000\000\001\000\000\000\367\000\000\000\222\003\000\000\"\000\000\000\000\000\000\000\002\000\000\000\001\000\000\000\003\000\000\000\274\002\000\000\000\000\000\000\010\000\000\000\003\000\000\000\301\000\000\000\004\000\000\000\000\000\000\000\007\000\000\000\000\000\000\000\000\000\000\000\002\000\000\000\001\000\000\000\367\000\000\000\222\003\000\000 \000\000\000\006\000\000\000\000\000\000\000\002\000\000\000\001\000\000\000\000\000\000\000\013\000\000\000\215\002\000\000\021\000\000\000\364\000\000\000\000\000\000\000\030\000\000\000\003\000\000\000\000\000\000\000\000\000\000\000\004\000\000\000\000\000\000\000\007\000\000\000\000\000\000\000\r\000\000\000\000\000\000\000\002\000\000\000\001\000\000\000\033\002\000\000\000\000\000\000\005\000\000\000\000\000\000\000\000\000\000\000\010\000\000\000\003\000\000\000\000\000\000\000\004\000\000\000\003\000\000\000\203\002\000\000\002\000\000\000\001\000\000\000\000\000\000\000\314\002\000\000\002\000\000\000\001\000\000\000\367\000\000\000\222\003\000\000\000\000\000\000\002\000\000\000\001\000\000\000\003\000\000\000\000\000\000\000\224\003\000\000\000\000\000\000\021\002\000\000\022\000\000\000\032\000\000\000\020\000\000\000\t\000\000\000\006\000\000\000\207\001\000\000\000\000\000\000\006\000\000\000\000\000\000\000\000\000\000\000\332\000\000\000\000\000\000\000\002\000\000\000\001\000\000\000F\000\000\000\014\000\000\000\022\000\000\000\000\000\000\000\026\001\000\000\003\000\000\000O\001\000\000\000\000\000\000\000\000\000\000\000\000\000\000\000\000\000\000\007\000\000\000\005\000\000\000\000\000\000\000\000\000\000\000\004\000\000\000\000\000\000\000\000\000\000\000\000\000\000\000\002\000\000\000\001\000\000\000\003\000\000\000B\000\000\000\247\000\000\000\000\000\000\000o\000\000\000\017\000\000\000\006\000\000\000\000\000\000\000\007\000\000\000\000\000\000\000\017\000\000\000\003\000\000\000\000\000\000\000\000\000\000\000\000\000\000\000-\000\000\000\000\000\000\000\002\000\000\000\001\000\000\000\005\000\000\000\000\000\000\000\000\000\000\000\000\000\000\000\000\000\000\000\000\000\000\000\000\000\000\000\007\000\000\000\000\000\000\000\007\000\000\000\000\000\000\000(\000\000\000\025\000\000\000\003\000\000\000\000\000\000\000\004\000\000\000\000\000\000\000\000\000\000\000\007\000\000\000\000\000\000\000\002\000\000\000\001\000\000\000\006\000\000\000T\000\000\000\000\000\000\000\013\000\000\000\003\000\000\000\000\000\000\000O\001\000\000\000\000\000\000\000\000\000\000\000\000\000\000\002\000\000\000\001\000\000\000\321\000\000\000\005\000\000\000\000\000\000\000\004\000\000\000\003\000\000\000L\000\000\000\217\000\000\000\013\000\000\000\003\000\000\000Z\003\000\000\000\000\000\000\000\000\000\000\n\000\000\000\000\000\000\000-\000\000\000\000\000\000\000\024\000\000\000\000\000\000\000\000\000\000\000\007\000\000\000\000\000\000\000\002\000\000\000\001\000\000\000$\000\000\000\003\000\000\000\321\002\000\000\000\000\000\000\r\000\000\000\231\000\000\000+\000\000\000\023\000\000\000\010\000\000\000\212\000\000\000\244\000\000\000\006\000\000\000\000\000\000\000\232\001\000\000\000\000\000\000\002\000\000\000\001\000\000\000\321\000\000\000\240\000\000\000L\000\000\000\346\002\000\000\023\000\000\000\014\000\000\000\000\000\000\000\037\000\000\000\n\000\000\000\003\000\000\000\000\000\000\000\002\000\000\000\001\000\000\000\000\000\000\000\000\000\000\000\000\000\000\000\007\000\000\000\000\000\000\000\023\000\000\0007\001\000\000\000\000\000\000\017\000\000\000\000\000\000\000\000\000\000\000\002\000\000\000\001\000\000\000\000\000\000\000\013\000\000\000\005\000\000\000g\003\000\000\000\000\000\000\t\000\000\000\370\002\000\000\'\000\000\000\n\000\000\000\000\000\000\000\002\000\000\000\001\000\000\000\003\000\000\000\274\002\000\000\007\000\000\000\000\000\000\000\000\000\000\000\000\000\000\000\000\000\000\000\027\000\000\000\215\002\000\000)\000\000\000\000\000\000\000\002\000\000\000\001\000\000\000\003\000\000\000\346\003\000\000\000\000\000\000\030\000\000\000\005\000\000\000\000\000\000\000\232\001\000\000\r\000\000\000\334\002\000\000\013\000\000\000\234\003\000\000\006\000\000\000\000\000\000\000\000\000\000\000\000\000\000\000\002\000\000\000\001\000\000\000\010\000\000\000\003\000\000\000\000\000\000\000\000\000\000\000\007\000\000\000\000\000\000\000\005\000\000\000\025\000\000\000v\000\000\000O\003\000\000\007\000\000\000\'\000\000\000\006\000\000\000B\000\000\000\000\000\000\000\000\000\000\000\000\000\000\000\002\000\000\000\001\000\000\000\367\000\000\000\222\003\000\000\000\000\000\000n\000\000\000\000\000\000\000-\000\000\000@\000\000\000\025\000\000\000-\000\000\000\300\002\000\000\002\000\000\000\001\000\000\000\267\001\000\000\003\000\000\000\000\000\000\000\'\000\000\000\000\000\000\000\025\000\000\000\006\000\000\000\000\000\000\000\004\000\000\000\377\000\000\000\007\000\000\000S\000\000\000+\000\000\000\033\000\000\000\006\000\000\000\226\002\000\000\217\001\000\000\002\000\000\000\001\000\000\000\003\000\000\000I\000\000\000\326\002\000\000\021\002\000\000\000\000\000\000\t\000\000\000\003\000\000\000\000\000\000\000]\001\000\000\007\000\000\000\000\000\000\000\000\000\000\000\002\000\000\000\001\000\000\000F\000\000\000\365\000\000\000\003\000\000\000\246\000\000\000\000\000\000\000\000\000\000\000\002\000\000\000\001\000\000\000\000\000\000\000\014\000\000\000\000\000\000\000\n\000\000\000f\000\000\000\000\000\000\000\002\000\000\000\001\000\000\000\003\000\000\000\001\001\000\000\277\001\000\000\000\000\000\000\003\000\000\000\000\000\000\000\004\000\000\000\000\000\000\000-\000\000\000\000\000\000\000\007\000\000\000\245\001\000\000\032\001\000\000\000\000\000\000\005\000\000\000\000\000\000\000\004\000\000\000\000\000\000\000\010\000\000\000\002\000\000\000\001\000\000\000\000\000\000\000_\003\000\000\022\002\000\000\017\000\000\000\000\000\000\000\025\000\000\000\017\000\000\000\000\000\000\000\000\000\000\000\007\000\000\000\'\000\000\000 \000\000\000\003\000\000\000 \001\000\000\000\000\000\000\000\000\000\000\000\000\000\000\000\000\000\000\002\000\000\000\001\000\000\000\003\000\000\000\217\001\000\000o\000\000\000\n\000\000\000\000\000\000\000\002\000\000\000\001\000\000\000\367\000\000\000\222\003\000\000\000\000\000\000\000\000\000\000\004\000\000\000\246\001\000\000 \000\000\000\340\000\000\000O\000\000\000\242\000\000\000\010\000\000\000\003\000\000\000\000\000\000\000\000\000\000\000\002\000\000\000\001\000\000\000\000\000\000\000\002\000\000\000\001\000\000\000B\002\000\000^\000\000\000.\000\000\000\031\000\000\000\340\000\000\000O\000\000\000\276\000\000\000p\000\000\000\264\000\000\000\276\000\000\000\342\000\000\000m\000\000\000\"\000\000\000\000\000\000\000\232\003\000\000\276\000\000\000\000\000\000\000\000\000\000\000\000\000\000\000\276\000\000\000\000\000\000\000\276\000\000\000t\003\000\000\000\000\000\000\000\000\000\000\000\000\000\000\235\000\000\000\020\000\000\000\314\001\000\000\002\000\000\000\001\000\000\000\006\000\000\000\000\000\000\000h\000\000\000\000\000\000\000\002\000\000\000\001\000\000\000\003\000\000\000\037\002\000\000\365\001\000\000\013\000\000\000\003\000\000\000T\000\000\000\021\000\000\000\002\000\000\000\001\000\000\000_\000\000\000k\002\000\000\357\000\000\000&\000\000\000V\000\000\0005\000\000\000\007\000\000\000\202\000\000\000\010\000\000\000\003\000\000\000l\000\000\000E\000\000\000\232\000\000\000\002\000\000\000\001\000\000\000x\000\000\000\002\000\000\000\001\000\000\000!\000\000\000\000\000\000\000\022\001\000\000\017\000\000\000A\000\000\000Y\002\000\000\000\000\000\000\036\000\000\000\315\001\000\000\000\000\000\000\002\000\000\000\001\000\000\000!\000\000\000K\000\000\000\003\000\000\000\002\000\000\000\001\000\000\000\000\000\000\000v\000\000\000\010\000\000\000\003\000\000\000\000\000\000\000\252\000\000\000\007\000\000\000!\000\000\000K\000\000\000\005\000\000\000\000\000\000\000v\000\000\000\000\000\000\000\002\000\000\000\001\000\000\000k\002\000\000\357\000\000\000\027\000\000\000\022\000\000\000\021\000\000\000\000\000\000\000\010\000\000\000@\000\000\000\023\000\000\000\000\000\000\000\350\000\000\000\020\000\000\000\003\000\000\000\000\000\000\000\005\000\000\000\000\000\000\000\006\000\000\000y\000\000\000\250\000\000\000\000\000\000\000\002\000\000\000\001\000\000\000\003\000\000\000\000\000\000\000\004\000\000\000\323\001\000\000\010\003\000\000u\000\000\000O\000\000\000\245\001\000\000\022\000\000\000\n\000\000\000\003\000\000\000\000\000\000\000\010\000\000\000\000\000\000\000\000\000\000\000\007\000\000\000\000\000\000\000\037\000\000\000\002\000\000\000\001\000\000\000\005\000\000\000\000\000\000\000\000\000\000\000\027\000\000\000\036\003\000\000\004\000\000\000\003\000\000\000\000\000\000\000\300\001\000\000\035\000\000\000\006\000\000\000H\001\000\000\233\001\000\000\007\000\000\000\000\000\000\000\035\000\000\000\003\000\000\000\000\000\000\000\004\000\000\000\014\000\000\000\000\000\000\000\002\000\000\000\001\000\000\000\357\000\000\000\000\000\000\000\t\000\000\000\003\000\000\000\000\000\000\000\352\001\000\000\027\000\000\000\002\000\000\000\001\000\000\000\003\000\000\000\323\001\000\000\007\000\000\000\000\000\000\000v\001\000\000\006\000\000\000\213\000\000\000\273\000\000\000\010\000\000\000\003\000\000\000l\000\000\000E\000\000\000\002\000\000\000\001\000\000\000\035\000\000\000\003\000\000\000\365\001\000\000\004\000\000\000\003\000\000\000\000\000\000\000\000\000\000\000K\002\000\000\005\000\000\000\343\001\000\000<\003\000\000X\000\000\000\000\000\000\000\007\000\000\000\000\000\000\000\002\000\000\000\001\000\000\000F\000\000\000\000\000\000\000\000\000\000\000\000\000\000\000\000\000\000\000\000\000\000\000\000\000\000\000V\003\000\000D\000\000\000\016\000\000\000&\000\000\000V\000\000\000\007\001\000\0000\000\000\000\007\000\000\000(\000\000\000\026\000\000\000\014\000\000\000\000\000\000\000\004\000\000\000\201\001\000\000\007\000\000\000\000\000\000\000\006\003\000\000\002\000\000\000\001\000\000\000\003\000\000\000\000\000\000\000,\000\000\000\005\000\000\000v\003\000\000\002\000\000\000\001\000\000\000\005\000\000\000H\001\000\000\233\001\000\000e\000\000\000\243\000\000\000\000\000\000\000\000\000\000\000\000\000\000\000\002\000\000\000\001\000\000\000\251\000\000\000\021\000\000\000\357\001\000\000I\001\000\000\t\000\000\000Y\003\000\000\030\000\000\000\010\000\000\000\003\000\000\000@\001\000\000E\000\000\000\004\000\000\000\000\000\000\000\225\003\000\000\r\000\000\000\007\002\000\000\002\000\000\000\001\000\000\000\000\000\000\000\344\002\000\000\247\001\000\000\000\000\000\000\003\000\000\000\000\000\000\000\003\000\000\000\000\000\000\000\002\000\000\000\001\000\000\000\010\000\000\000I\000\000\000\335\003\000\000I\001\000\000\003\000\000\000\000\000\000\000\005\000\000\000\000\000\000\000\000\000\000\000\000\000\000\000 \000\000\000\\\000\000\000\002\000\000\000\001\000\000\000\024\000\000\000\005\000\000\000o\001\000\000\000\000\000\000\243\000\000\000\006\000\000\000\000\000\000\000\000\000\000\000\002\000\000\000\001\000\000\000\000\000\000\000\000\000\000\000\003\000\000\000\000\000\000\000\010\000\000\000\003\000\000\000\317\003\000\000\002\000\000\000\001\000\000\000\003\000\000\000B\000\000\000f\000\000\000E\000\000\000\033\001\000\000\233\000\000\000\035\000\000\000\003\000\000\000\000\000\000\000\004\000\000\000\005\000\000\000\000\000\000\000\002\000\000\000\001\000\000\000\000\000\000\000\007\000\000\000\265\000\000\000\035\000\000\000\000\000\000\000\025\002\000\000\002\000\000\000\001\000\000\000\022\000\000\000o\000\000\000\006\000\000\000\000\000\000\000\007\000\000\000\000\000\000\000\000\000\000\000\000\000\000\000\002\000\000\000\001\000\000\000V\003\000\000\000\000\000\000\000\000\000\000\'\000\000\000\024\000\000\000\006\000\000\000\000\000\000\000\004\000\000\000\003\000\000\000\000\000\000\000,\000\000\000\344\002\000\000%\000\000\000\021\000\000\000\000\000\000\000\002\000\000\000\001\000\000\000\022\000\000\0004\000\000\000\035\000\000\000\003\000\000\000\000\000\000\000\004\000\000\000\003\000\000\000\000\000\000\000\007\000\000\000\003\000\000\000\000\000\000\0000\000\000\000\000\000\000\000\024\000\000\0002\003\000\000\000\000\000\000&\000\000\000q\001\000\000\002\000\000\000\001\000\000\000\026\000\000\000\003\000\000\000\000\000\000\000\004\000\000\000\000\000\000\000\000\000\000\000-\000\000\000\002\000\000\000\001\000\000\000\000\000\000\000o\000\000\000)\002\000\000&\000\000\000\036\002\000\000\002\000\000\000\001\000\000\000\003\000\000\000\216\001\000\000E\000\000\000\000\000\000\000\215\002\000\000\000\000\000\000\004\000\000\000\005\000\000\000\000\000\000\000\004\000\000\000\003\000\000\000\000\000\000\000X\000\000\000\003\000\000\000\000\000\000\000\002\000\000\000\001\000\000\000O\003\000\000,\000\000\000V\003\000\000\000\000\000\000\003\000\000\000\000\000\000\000\004\000\000\000\003\000\000\000\270\000\000\000\000\000\000\000)\000\000\000j\000\000\000\003\000\000\000\201\001\000\000\000\000\000\000\t\000\000\000\003\000\000\000\361\000\000\000\000\000\000\000\021\000\000\000\000\000\000\000\013\000\000\000\002\000\000\000\001\000\000\000\000\000\000\000\340\001\000\000\022\000\000\000\010\000\000\000\003\000\000\000*\001\000\000\000\000\000\000\007\000\000\000\010\000\000\000=\000\000\000\264\001\000\000\000\000\000\000\003\000\000\000\000\000\000\000%\000\000\000\000\000\000\000D\000\000\000\003\000\000\000\323\001\000\000\n\000\000\000o\001\000\000\244\002\000\000\021\000\000\000\000\000\000\000\002\000\000\000\001\000\000\000\006\001\000\000\003\000\000\000\000\000\000\000\004\000\000\000\003\000\000\000l\000\000\000E\000\000\000\000\000\000\000\003\000\000\000\000\000\000\000\202\000\000\000\240\000\000\000\000\000\000\000\000\000\000\000\r\000\000\000\000\000\000\000\002\000\000\000\001\000\000\000\t\000\000\000\013\000\000\000\020\000\000\000\003\000\000\000\224\000\000\000\004\000\000\000\000\000\000\000\000\003\000\000\003\000\000\000D\002\000\000\004\000\000\000\005\000\000\000H\001\000\000\000\000\000\000\007\000\000\000\003\000\000\000\n\001\000\000\004\000\000\000\201\001\000\000\000\000\000\000\004\000\000\000.\003\000\000\016\000\000\0007\000\000\000\256\001\000\000\016\001\000\000\006\000\000\000\000\000\000\000\000\000\000\000\000\000\000\000-\000\000\000\014\000\000\000\251\000\000\000\310\002\000\000\000\000\000\000\000\000\000\000\002\000\000\000\001\000\000\000\000\000\000\000\025\000\000\000\344\002\000\000\316\002\000\000\t\000\000\000h\001\000\000\270\000\000\000\000\000\000\000 \000\000\000\006\000\000\000\000\000\000\000\002\000\000\000\001\000\000\000\003\000\000\000\000\000\000\000\000\000\000\000\017\000\000\000\005\000\000\000\000\000\000\000\004\000\000\000Z\002\000\000\206\000\000\000\007\000\000\000\002\000\000\000\001\000\000\000j\003\000\000\002\000\000\000\001\000\000\000\016\000\000\000\253\002\000\000\000\000\000\000\030\000\000\000\003\000\000\000\000\000\000\000\000\000\000\000\004\000\000\000\005\000\000\000H\001\000\000\233\001\000\000\032\000\000\000\n\000\000\000\005\000\000\000o\001\000\000\244\002\000\000\r\000\000\000\000\000\000\000\002\000\000\000\001\000\000\000\'\000\000\000\000\000\000\000\000\000\000\000\365\002\000\000\002\000\000\000\001\000\000\000\003\000\000\000\000\000\000\000\007\000\000\000\000\000\000\000\014\000\000\000\026\000\000\000\003\000\000\000L\003\000\000\037\000\000\000\256\000\000\000\000\000\000\000\003\000\000\000\000\000\000\000\000\000\000\000\004\000\000\000\000\000\000\000\000\000\000\0002\003\000\000\017\000\000\000\003\000\000\000\000\000\000\000c\002\000\000\000\000\000\000\004\000\000\000\000\000\000\000\002\000\000\000\001\000\000\000+\000\000\000[\000\000\000L\003\000\000&\000\000\000\341\001\000\000\002\000\000\000\001\000\000\000!\000\000\000\000\000\000\000V\002\000\000\t\000\000\000\022\000\000\000\000\000\000\000\235\000\000\0001\000\000\000&\000\000\000\263\001\000\000\027\000\000\000D\000\000\000\n\001\000\000\007\000\000\000\206\000\000\000\007\000\000\000\003\000\000\000\376\000\000\000\000\000\000\000\025\001\000\000\301\000\000\000R\000\000\000\021\000\000\000\000\000\000\000\004\000\000\000\031\001\000\000\002\000\000\000\001\000\000\000\211\000\000\000j\003\000\000\007\001\000\000\004\000\000\000&\000\000\000L\003\000\000\031\001\000\000\000\000\000\000\003\000\000\000\000\000\000\000\010\000\000\000\005\000\000\000H\001\000\000\307\000\000\000\002\000\000\000\001\000\000\000\"\000\000\000=\000\000\000\263\001\000\000 \000\000\000\000\000\000\0004\002\000\000\002\000\000\000\001\000\000\000\352\002\000\0003\000\000\0002\000\000\000\n\003\000\000&\000\000\000\000\000\000\000\002\000\000\000\001\000\000\000\024\000\000\000\005\000\000\000\263\001\000\000o\000\000\000\022\000\000\000\007\000\000\000\003\000\000\000\323\001\000\000\000\000\000\000r\000\000\000\003\000\000\000\n\001\000\000\017\000\000\000)\000\000\000g\000\000\000\224\001\000\000\010\000\000\000\003\000\000\000l\000\000\000E\000\000\000\346\003\000\000\002\000\000\000\001\000\000\0002\000\000\000\000\000\000\000\004\000\000\000\003\000\000\000\000\000\000\000\010\000\000\000\005\000\000\000H\001\000\000\307\000\000\000\006\000\000\000\000\000\000\000\000\000\000\000\003\000\000\000T\000\000\000l\000\000\000\253\002\000\000(\000\000\000\n\000\000\000o\001\000\000\244\002\000\000\337\000\000\000\231\000\000\000\002\000\000\000\001\000\000\000\344\002\000\000C\001\000\000\005\000\000\000\343\001\000\000\020\000\000\000\030\000\000\000\010\000\000\000\r\000\000\000H\003\000\000\017\000\000\000\005\000\000\000\233\001\000\000\024\000\000\000\005\000\000\000\000\000\000\000\000\000\000\000\006\000\000\0001\000\000\000\316\001\000\000\003\000\000\000D\002\000\000\r\000\000\000\000\000\000\000\002\000\000\000\001\000\000\0000\000\000\000\022\000\000\000\010\000\000\000\016\000\000\000)\001\000\000\007\002\000\000\010\000\000\000\003\000\000\000}\001\000\000%\002\000\000\034\000\000\000:\000\000\000\003\000\000\000\323\001\000\000\202\000\000\000\000\000\000\000 \000\000\000\003\000\000\000l\000\000\000E\000\000\000\002\000\000\000\001\000\000\000\005\000\000\000\013\000\000\000\000\000\000\000\006\000\000\000\000\000\000\000\014\000\000\000 \001\000\000\000\000\000\000\007\000\000\000 \001\000\000\000\000\000\000\315\000\000\000:\001\000\000\000\000\000\000\025\000\000\000\003\000\000\000G\002\000\000\004\000\000\000>\000\000\000 \000\000\000B\002\000\000\000\000\000\000I\001\000\000\006\000\000\000\345\003\000\000\002\000\000\000\001\000\000\000\006\000\000\000\000\000\000\000\004\000\000\000\006\000\000\000\000\000\000\000\021\000\000\000\004\000\000\000\006\000\000\000\025\001\000\000\224\000\000\000\000\000\000\000\032\000\000\000\246\003\000\000\000\000\000\000\002\000\000\000\001\000\000\000\000\000\000\000\027\000\000\000E\001\000\000L\000\000\000\006\000\000\000\000\000\000\000\000\000\000\000\007\000\000\000\013\000\000\000S\000\000\000\006\000\000\000\377\002\000\000\345\003\000\000\002\000\000\000\001\000\000\000!\000\000\000\230\000\000\000\023\001\000\000\000\000\000\000\036\000\000\000\005\000\000\000o\001\000\000\000\000\000\000\024\000\000\000\005\000\000\000\000\000\000\000&\000\000\000\240\000\000\000\000\000\000\000\000\000\000\000\025\002\000\000\"\000\000\000\000\000\000\000\002\000\000\000\001\000\000\000\022\000\000\000\014\000\000\000&\000\000\000\000\000\000\000\000\000\000\000\"\000\000\000\000\000\000\000\000\000\000\000\002\000\000\000\001\000\000\000\007\000\000\000\005\000\000\000H\001\000\000\233\001\000\000\013\000\000\000\\\000\000\000\002\000\000\000\001\000\000\000\025\000\000\0002\000\000\000\021\000\000\000\000\000\000\000K\000\000\000\022\000\000\000\035\000\000\000\006\000\000\0001\000\000\000\n\000\000\000\000\000\000\000\000\000\000\000\216\000\000\000\233\000\000\000\000\000\000\000\014\000\000\000\002\000\000\000\001\000\000\000\000\000\000\000\007\000\000\000\000\000\000\000\000\000\000\000\000\000\000\000\016\000\000\000 \000\000\000\003\000\000\000\000\000\000\000l\000\000\000\000\000\000\000\004\000\000\000\003\000\000\000\224\000\000\000\000\000\000\000\000\000\000\000\005\000\000\000\343\001\000\000-\000\000\000\003\000\000\000\000\000\000\000\002\000\000\000\001\000\000\000\000\000\000\000Q\001\000\000\t\000\000\000\017\000\000\000\006\000\000\000\000\000\000\000\000\000\000\000\002\000\000\000\001\000\000\000!\000\000\000\215\000\000\000x\000\000\000]\000\000\000\000\000\000\000\007\000\000\000\002\000\000\000\001\000\000\000\320\001\000\000\\\000\000\000\000\000\000\000\002\000\000\000\001\000\000\000\017\000\000\000=\000\000\000o\001\000\000\023\002\000\000\000\000\000\000!\000\000\000&\000\000\000\000\000\000\000\030\000\000\000x\000\000\000\r\000\000\000]\000\000\000\000\000\000\000\024\000\000\000R\000\000\000,\000\000\000!\000\000\000\032\000\000\000\021\000\000\000\n\000\000\000\000\000\000\000\002\000\000\000\001\000\000\000!\000\000\000\000\000\000\000\005\000\000\000o\001\000\000\023\002\000\000\034\000\000\000\032\000\000\000\021\000\000\000\r\000\000\000\000\000\000\000\002\000\000\000\001\000\000\0002\000\000\000M\000\000\000\010\000\000\000\005\000\000\000o\001\000\000\307\000\000\000\000\000\000\000D\002\000\000\311\002\000\000\007\000\000\000\010\000\000\000\320\001\000\000\274\000\000\000\000\000\000\000\002\000\000\000\001\000\000\000\005\000\000\000\343\001\000\000\000\000\000\000\003\000\000\000\000\000\000\000\002\000\000\000\001\000\000\000\003\000\000\000\034\002\000\000\000\000\000\000\000\000\000\000\003\000\000\000\323\001\000\000\020\000\000\000\005\000\000\000\036\002\000\000a\000\000\0007\000\000\000\000\000\000\000\004\000\000\000\005\000\000\000\343\001\000\000\232\000\000\000\032\000\000\000%\000\000\000\003\000\000\000\000\000\000\000\004\001\000\000\002\000\000\000\001\000\000\000\016\000\000\000j\000\000\000k\002\000\000\357\000\000\000\006\000\000\000\000\000\000\000\n\000\000\000\003\000\000\000\000\000\000\000\000\000\000\000\002\000\000\000\001\000\000\000\006\000\000\000\000\000\000\000\306\000\000\000\315\000\000\000.\000\000\0001\000\000\0007\000\000\000\014\000\000\000\241\001\000\000V\000\000\0000\000\000\000\007\000\000\000\357\000\000\000\013\000\000\000\315\000\000\000\000\000\000\0001\000\000\000#\001\000\000\000\000\000\000\002\000\000\000\001\000\000\000\005\000\000\000\000\000\000\000\000\000\000\000\000\000\000\000\210\002\000\000\000\000\000\000\002\000\000\000\001\000\000\000\005\000\000\000\225\002\000\000\020\000\000\000\003\000\000\000\375\000\000\000\t\000\000\000k\002\000\000\357\000\000\000\016\000\000\000\000\000\000\000\021\000\000\000:\000\000\000\000\000\000\000\200\000\000\000D\000\000\000\023\000\000\000\003\000\000\000\000\000\000\000\262\000\000\000,\000\000\000\004\000\000\000.\000\000\000\004\000\000\000\003\000\000\000^\000\000\000\000\000\000\000\002\000\000\000\001\000\000\000\024\000\000\000\003\000\000\000\000\000\000\000\007\000\000\000\201\001\000\000V\003\000\000\241\000\000\000\003\000\000\000\000\000\000\000\010\000\000\000\003\000\000\000\224\000\000\000\000\000\000\000\000\000\000\0006\001\000\000\027\000\000\000\357\000\000\000%\003\000\000\211\000\000\000&\000\000\000\364\001\000\000\002\000\000\000\001\000\000\000/\000\000\000\022\000\000\000:\000\000\000\000\000\000\000\025\000\000\000\357\000\000\000\005\000\000\000\021\000\000\000\000\000\000\000\002\000\000\000\001\000\000\000\034\000\000\000\321\001\000\000\022\000\000\000\021\000\000\000\227\000\000\000\006\000\000\000\000\000\000\000\002\000\000\000\001\000\000\000=\000\000\000\013\000\000\000\006\000\000\000\000\000\000\000h\000\000\000\000\000\000\000K\001\000\000\006\000\000\000\000\000\000\000\020\000\000\000\005\000\000\000\343\001\000\000\335\001\000\000\002\000\000\000\001\000\000\000/\000\000\000\357\000\000\000\007\000\000\000V\003\000\000\r\000\000\000:\001\000\000g\002\000\000\r\000\000\000\316\002\000\000\252\003\000\000\002\000\000\000\001\000\000\000\004\000\000\000\003\000\000\000\031\000\000\000\220\000\000\000\000\000\000\000\000\000\000\000\006\000\000\000\371\001\000\000\t\000\000\000\357\000\000\000V\000\000\000\\\001\000\0000\000\000\000\002\000\000\000\001\000\000\000\024\000\000\000\005\000\000\000\027\000\000\000\006\000\000\000\000\000\000\000\371\001\000\000\007\000\000\000\216\000\000\000\021\000\000\000\003\000\000\000\000\000\000\000\340\000\000\000m\000\000\000|\001\000\000\002\000\000\000\001\000\000\000\000\000\000\000\000\000\000\000\002\000\000\000\001\000\000\000\003\000\000\000\000\000\000\0004\001\000\000,\000\000\000\005\000\000\000\000\000\000\000\000\000\000\000\021\000\000\000\377\001\000\000\257\003\000\000/\000\000\000\023\000\000\000\007\001\000\000\002\000\000\000\001\000\000\000\357\000\000\000\000\000\000\000(\000\000\000-\000\000\000\005\000\000\000\343\001\000\000\004\000\000\000\010\003\000\000u\000\000\000O\000\000\000\222\000\000\000r\000\000\000\003\000\000\000\000\000\000\000\003\000\000\000\000\000\000\000\000\000\000\000\000\000\000\000\025\000\000\000\006\000\000\000\000\000\000\000\004\000\000\000\003\000\000\000\000\000\000\000\002\000\000\000\001\000\000\000\036\000\000\000\003\000\000\0004\001\000\000\004\000\000\000\003\000\000\000\323\001\000\000\000\000\000\000T\000\000\000\000\000\000\000\003\000\000\000\000\000\000\000\002\000\000\000\001\000\000\000\357\001\000\000\000\000\000\000\003\000\000\000A\001\000\000\004\000\000\000\357\000\000\000\010\000\000\000\003\000\000\000\000\000\000\000\004\000\000\000\003\000\000\000\224\000\000\000\002\000\000\000\001\000\000\000\024\000\000\000\357\000\000\000\000\000\000\000\032\000\000\000\000\000\000\000\n\000\000\000\002\000\000\000\001\000\000\000F\000\000\000\007\001\000\000\003\000\000\000\000\000\000\000\024\001\000\000\000\000\000\000\000\000\000\000\020\000\000\000\005\000\000\000\343\000\000\000\307\000\000\000\002\000\000\000\001\000\000\000\006\000\000\000\344\001\000\000\004\000\000\000\003\000\000\000\224\000\000\000\245\001\000\000C\000\000\000\000\000\000\000\311\001\000\000\n\000\000\000\003\000\000\000\000\000\000\000D\000\000\000\016\000\000\000*\000\000\000\000\000\000\000\026\000\000\000&\003\000\000\000\000\000\000\002\000\000\000\001\000\000\000\024\000\000\000%\000\000\000\020\000\000\000\005\000\000\000\000\000\000\000\014\000\000\000\000\000\000\000Q\001\000\000\324\003\000\000k\002\000\000)\000\000\000\026\000\000\000\t\000\000\000\023\000\000\000-\000\000\000\221\000\000\000\374\000\000\000\002\000\000\000\001\000\000\000\010\000\000\000\006\000\000\000\331\001\000\000\000\000\000\000\000\000\000\000\023\000\000\000X\003\000\000\t\000\000\000\026\002\000\000\006\000\000\000\000\000\000\000\010\000\000\000\002\000\000\000\001\000\000\000\000\000\000\000\032\000\000\000\006\000\000\000l\000\000\000\000\000\000\000C\000\000\000\021\000\000\000\r\000\000\000\000\000\000\000:\000\000\000\014\000\000\000\002\000\000\000\001\000\000\000\000\000\000\000=\002\000\000\003\000\000\0004\001\000\000\006\000\000\000\037\001\000\000\000\000\000\000\002\000\000\000\001\000\000\000\005\000\000\000\027\000\000\000\032\000\000\000\006\000\000\000\000\000\000\000\004\000\000\000\000\000\000\000N\000\000\000\003\000\000\000\000\000\000\000\016\000\000\000\n\000\000\000\014\000\000\000\000\000\000\000\\\000\000\000\013\000\000\000\020\000\000\000\006\000\000\000\000\000\000\000\000\000\000\000\022\003\000\000\010\000\000\000\003\000\000\000\000\000\000\000\007\000\000\000\003\000\000\000\000\000\000\000\000\000\000\000\030\000\000\000\010\000\000\000\000\000\000\000\000\000\000\000\025\000\000\000[\000\000\000\006\000\000\000\000\000\000\000\000\000\000\000\r\000\000\000f\001\000\000\002\000\000\000\001\000\000\000\003\000\000\000\000\000\000\000\317\001\000\000\003\000\000\000\002\000\000\000\001\000\000\000\357\000\000\000\010\000\000\000Z\000\000\000\000\000\000\000\000\000\000\000\002\000\000\000\001\000\000\000\300\002\000\000M\000\000\0002\000\000\000\345\000\000\000%\000\000\000\322\001\000\000\030\000\000\0001\002\000\000\036\000\000\000\r\000\000\000d\000\000\000\030\000\000\000\033\000\000\000\n\000\000\000Z\000\000\000\000\000\000\000\r\000\000\000H\000\000\000\000\000\000\000\000\000\000\000\006\000\000\000=\001\000\000\000\000\000\000\000\000\000\000\n\000\000\000\002\000\000\000\001\000\000\000\016\000\000\000\000\000\000\000\000\000\000\000\026\000\000\000\003\000\000\000\000\000\000\000\004\000\000\000\003\000\000\000\000\000\000\000\004\000\000\000\003\000\000\000\000\000\000\000\000\000\000\000\000\000\000\000k\002\000\000\000\000\000\000A\000\000\000H\003\000\000\002\000\000\000\001\000\000\000\010\000\000\000\003\000\000\000\000\000\000\000\004\000\000\000\005\000\000\000\000\000\000\0005\000\000\000\026\000\000\000\006\000\000\000\000\000\000\000\000\000\000\000\007\000\000\000\232\002\000\0005\000\000\000\002\000\000\000\001\000\000\000\357\000\000\000=\000\000\000\250\000\000\000\004\001\000\000\017\000\000\000,\002\000\000\000\000\000\000%\003\000\000\025\000\000\000\364\001\000\000\000\000\000\000\002\000\000\000\001\000\000\000\007\000\000\000\005\000\000\000\000\000\000\000\t\000\000\000F\000\000\000\000\000\000\000\t\000\000\000\357\000\000\000P\000\000\000\006\000\000\000\364\001\000\000\004\000\000\000\010\003\000\000u\000\000\000O\000\000\000:\000\000\0000\000\000\000\002\000\000\000\001\000\000\000\020\000\000\000\t\000\000\000\000\000\000\000`\000\000\000\022\000\000\000\303\001\000\000\361\000\000\000\000\000\000\000\204\002\000\000\002\000\000\000\001\000\000\000\225\000\000\000\005\000\000\000\000\000\000\000[\003\000\000\003\000\000\000\000\000\000\000\005\000\000\000\000\000\000\000X\000\000\000\323\001\000\000\007\000\000\000\010\003\000\000u\000\000\000O\000\000\000\007\000\000\000\225\000\000\000\005\000\000\000\000\000\000\000\004\000\000\000\005\000\000\000H\001\000\000\307\000\000\000\000\000\000\000\003\000\000\000\000\000\000\000\003\000\000\000%\001\000\000\026\000\000\000\002\000\000\000\001\000\000\000\006\000\000\000B\000\000\000\000\000\000\000j\000\000\000\003\000\000\000\365\001\000\000<\003\000\000\000\000\000\000\002\000\000\000\001\000\000\000\017\000\000\000\006\000\000\000\000\000\000\000\371\001\000\000\002\000\000\000\001\000\000\000\006\000\000\000\000\000\000\000:\000\000\000\006\000\000\000\000\000\000\000\004\000\000\000\005\000\000\000\000\000\000\000\000\000\000\000\002\000\000\000\001\000\000\000W\000\000\0007\001\000\000\013\000\000\000\006\000\000\000\000\000\000\000\303\001\000\000\267\003\000\000\002\000\000\000\001\000\000\000\000\000\000\000\007\000\000\000\000\000\000\000\005\003\000\000\002\000\000\000\001\000\000\000\003\000\000\000\207\003\000\000+\000\000\000%\000\000\000\204\000\000\000\014\000\000\000\000\000\000\000\021\000\000\000\000\000\000\000\002\000\000\000\001\000\000\000\221\003\000\000\002\000\000\000\001\000\000\000\000\000\000\000\007\000\000\000\003\000\000\000\002\000\000\000\001\000\000\000\000\000\000\000\004\000\000\000\003\000\000\000\000\000\000\000\000\000\000\000\002\000\000\000\001\000\000\000\000\000\000\000|\000\000\000\035\000\000\000\003\000\000\000\000\000\000\000\000\000\000\000\016\000\000\000(\000\000\000\010\000\000\000\002\000\000\000\001\000\000\000\221\000\000\000\000\000\000\000\002\000\000\000\001\000\000\000\003\000\000\000\000\000\000\000\266\000\000\000\000\000\000\000\026\001\000\000\035\001\000\000\031\000\000\000Y\000\000\000\020\000\000\000\000\000\000\000\024\000\000\000\000\000\000\000\035\000\000\000\000\000\000\000\004\000\000\000h\001\000\000k\000\000\000\031\000\000\0001\000\000\000\261\001\000\000\002\000\000\000\001\000\000\000\032\000\000\000)\000\000\000\014\000\000\000\005\000\000\000&\000\000\000\000\000\000\000\202\000\000\0006\002\000\000\006\000\000\000\007\003\000\000\000\000\000\000\026\000\000\000\003\000\000\0004\001\000\000\347\001\000\000\002\000\000\000\001\000\000\000\t\000\000\000+\000\000\000\003\000\000\000\000\000\000\000)\002\000\000\000\000\000\000\002\000\000\000\001\000\000\000\037\000\000\000\003\000\000\000\335\000\000\000\004\000\000\000\000\000\000\000o\000\000\000\006\000\000\000\301\000\000\000-\000\000\000\020\000\000\000\004\000\000\000\000\000\000\000\"\000\000\000\000\000\000\000\000\000\000\000\000\000\000\000\005\003\000\000\007\000\000\000\000\000\000\000\000\000\000\000\007\000\000\000\000\000\000\000\002\000\000\000\001\000\000\000=\000\000\000\000\000\000\000\000\000\000\000{\000\000\000\032\000\000\000\200\003\000\000\037\000\000\000\003\000\000\000\000\000\000\000K\003\000\000\004\000\000\000\002\000\000\000\001\000\000\000\000\000\000\000\000\000\000\0008\000\000\000\004\000\000\000\330\000\000\000\000\000\000\000\000\000\000\000a\000\000\000\005\000\000\000\'\000\000\000\000\000\000\000$\000\000\000\003\000\000\000\000\000\000\000\271\001\000\000\037\000\000\000w\002\000\000)\001\000\000\002\000\000\000\001\000\000\000\016\000\000\000\271\001\000\000\013\000\000\000\r\000\000\000\353\000\000\000\n\000\000\000\003\000\000\000\000\000\000\000\037\000\000\000\000\000\000\000\017\000\000\000\005\000\000\000\000\000\000\000U\000\000\000\000\000\000\000\000\000\000\000\005\000\000\000\000\000\000\000\000\000\000\000\003\000\000\000\000\000\000\000\014\000\000\000\000\000\000\000\000\000\000\000\017\000\000\000\367\002\000\000\035\000\000\000\003\000\000\000\301\003\000\000\007\000\000\000\035\000\000\000\003\000\000\000\000\000\000\000\004\000\000\000\003\000\000\000\315\002\000\000\002\000\000\000\001\000\000\000\305\003\000\000\000\000\000\000\023\000\000\000\000\000\000\000N\001\000\000\007\000\000\000\305\003\000\000\000\000\000\000\002\000\000\000\001\000\000\000\003\000\000\000)\001\000\000\000\000\000\000\005\000\000\000\377\000\000\000n\000\000\000\'\000\000\000\000\000\000\000\003\000\000\000\207\003\000\000\000\000\000\000\007\000\000\000\'\000\000\000\271\000\000\000\000\000\000\000\000\000\000\000X\000\000\000.\000\000\000b\000\000\000k\000\000\000\031\000\000\000\007\000\000\000\034\001\000\000\031\000\000\000\020\000\000\000\002\000\000\000\001\000\000\000\000\000\000\000\002\000\000\000\001\000\000\000\003\000\000\000\000\000\000\000\013\000\000\000\000\000\000\000\004\000\000\000\000\000\000\000\000\000\000\000\000\000\000\000\003\000\000\000\000\000\000\000\004\000\000\000\003\000\000\000\000\000\000\000\000\000\000\000\010\000\000\000\002\000\000\000\001\000\000\000\000\000\000\000\003\000\000\000\000\000\000\000\004\000\000\000\005\000\000\000\000\000\000\000\002\000\000\000\001\000\000\000\003\000\000\000\001\001\000\000\243\000\000\000&\000\000\000\000\000\000\000\n\000\000\000\014\000\000\000\000\000\000\000\000\000\000\000\007\000\000\000\010\000\000\000b\000\000\000\302\000\000\000\031\000\000\000\340\000\000\000\220\000\000\000\000\000\000\000\023\000\000\000\016\000\000\000\010\000\000\000\r\000\000\000t\002\000\000\225\000\000\000\005\000\000\000\341\003\000\000\000\000\000\0000\001\000\000r\001\000\000`\000\000\000\002\000\000\000\001\000\000\000F\000\000\000\000\000\000\000\003\000\000\000\000\000\000\000\002\000\000\000\001\000\000\000\000\000\000\000\207\003\000\000\007\000\000\000\000\000\000\000\002\000\000\000\001\000\000\000\016\000\000\000\000\000\000\000\014\000\000\000\021\000\000\000\000\000\000\000w\000\000\000\r\000\000\000\000\000\000\000\007\000\000\000\000\000\000\000\032\000\000\000-\000\000\000\000\000\000\000\004\000\000\000\003\000\000\000\213\000\000\000r\000\000\000\000\000\000\000\266\000\000\000\204\002\000\000\002\000\000\000\001\000\000\000_\000\000\000\034\000\000\000\032\000\000\000\003\000\000\000\207\003\000\000\000\000\000\000\014\000\000\000<\002\000\000\026\000\000\000\006\000\000\000(\001\000\000\341\003\000\000\005\000\000\000\000\000\000\000\006\000\000\000\000\000\000\000\004\000\000\000;\000\000\000|\001\000\000\000\000\000\000\007\000\000\000\234\000\000\000|\001\000\000\000\000\000\000\002\000\000\000\001\000\000\000\020\000\000\000\005\000\000\000\013\001\000\000\274\001\000\000S\000\000\000N\001\000\000\000\000\000\000\017\000\000\000\000\000\000\0000\000\000\000r\001\000\000\324\002\000\000\003\000\000\000\301\003\000\000\007\000\000\000\003\000\000\000\000\000\000\000\022\000\000\000\205\002\000\000\304\000\000\000\001\003\000\000\000\000\000\000\002\000\000\000\001\000\000\000-\000\000\000\000\000\000\000\010\000\000\000\005\000\000\000\000\000\000\000\000\000\000\000\022\000\000\000\000\000\000\000\004\000\000\000.\000\000\000b\000\000\000 \000\000\000#\000\000\000\031\000\000\000B\002\000\000\n\000\000\000\005\000\000\000\000\000\000\000\000\000\000\000\006\000\000\000\000\000\000\000\017\000\000\000\005\000\000\000\000\000\000\000\004\000\000\000\000\000\000\000\025\000\000\000q\002\000\000\002\000\000\000\001\000\000\000R\000\000\000\000\000\000\000\225\000\000\000\003\000\000\000\000\000\000\000G\000\000\000\000\000\000\000\016\000\000\000\014\000\000\000<\002\000\000\014\001\000\000\026\000\000\000\003\000\000\000\002\000\000\000\001\000\000\000\006\000\000\000\000\000\000\000\221\003\000\000\000\000\000\000\000\000\000\000b\000\000\000\235\000\000\000\031\000\000\000\n\000\000\000\005\000\000\000\000\000\000\000\000\000\000\000\017\000\000\000\000\000\000\000\025\000\000\000q\002\000\000\002\000\000\000\001\000\000\000\225\000\000\000\000\000\000\000\027\000\000\000\000\000\000\000R\000\000\000G\000\000\000\002\000\000\000\001\000\000\000V\002\000\000Q\000\000\000\t\000\000\000\005\000\000\000\000\000\000\000j\001\000\000\007\000\000\000\005\000\000\000\000\000\000\000\000\000\000\000\022\000\000\000\000\000\000\000\007\000\000\000\t\000\000\000\223\000\000\000\027\000\000\000\006\000\000\000\002\000\000\000\001\000\000\000\000\000\000\000K\003\000\000\002\000\000\000\001\000\000\000\003\000\000\000\000\000\000\000\000\000\000\000:\000\000\000\000\000\000\000\006\000\000\000?\001\000\000\000\000\000\000\005\000\000\000\002\000\000\000\001\000\000\000\000\000\000\000\000\000\000\000\007\000\000\0000\001\000\000,\000\000\000\032\000\000\000\220\003\000\000\017\000\000\000\000\000\000\000\010\000\000\000\002\000\000\000\001\000\000\000\000\000\000\000\007\000\000\000\000\000\000\000\002\000\000\000\001\000\000\000\032\000\000\000R\000\000\000\266\000\000\000\346\000\000\000A\000\000\000\000\000\000\000\000\000\000\000\204\002\000\000\002\000\000\000\001\000\000\000\020\000\000\000\005\000\000\000\013\001\000\000\010\000\000\000\003\000\000\000\217\001\000\000\027\000\000\000\022\000\000\000\n\000\000\000\005\000\000\000U\000\000\000\000\000\000\000\006\000\000\000\000\000\000\000\221\003\000\000\017\000\000\000\000\000\000\000\025\000\000\000\000\000\000\000\002\000\000\000\001\000\000\000\000\000\000\000\032\000\000\000\t\000\000\000\003\000\000\000\001\002\000\000\004\000\000\000\221\000\000\000\273\003\000\000\000\000\000\000\007\001\000\000\014\000\000\000\004\000\000\000\003\000\000\000P\002\000\000\002\000\000\000\001\000\000\000\000\000\000\000\007\000\000\000\005\003\000\000\037\000\000\000\003\000\000\000\207\003\000\000\002\000\000\000\001\000\000\000\013\001\000\000\027\000\000\000\016\000\000\000\r\000\000\000\010\001\000\000\010\000\000\000\000\000\000\000S\000\000\000\013\000\000\000\033\000\000\000\010\000\000\000\000\000\000\000\007\000\000\000\255\001\000\000n\000\000\000\033\000\000\000-\000\000\000\000\000\000\000\007\000\000\000\000\000\000\000\002\000\000\000\001\000\000\000\017\000\000\000.\000\000\000\031\000\000\000Y\000\000\000\000\000\000\000\037\000\000\000\342\000\000\000O\000\000\000U\000\000\000\000\000\000\000\'\000\000\000\022\000\000\000\006\000\000\000\301\000\000\000\000\000\000\000\000\000\000\000\021\000\000\000A\000\000\000\017\000\000\000\000\000\000\0004\000\000\0000\000\000\000\265\001\000\000\002\000\000\000\001\000\000\000\000\000\000\000\007\000\000\000\000\000\000\0003\000\000\000\000\000\000\000\005\000\000\000\000\000\000\000-\000\000\000\003\000\000\000\341\001\000\000\004\000\000\000\003\000\000\000\000\000\000\000\002\000\000\000\001\000\000\0006\001\000\000\266\000\000\000\000\000\000\000\000\000\000\000\007\000\000\000\000\000\000\000\000\000\000\000\000\000\000\000\003\000\000\000\032\003\000\000\000\000\000\000\010\000\000\000\000\000\000\000\007\000\000\000\000\000\000\000\014\000\000\000\000\000\000\000\002\000\000\000\001\000\000\000\t\000\000\000\337\002\000\000[\001\000\000\t\000\000\000\003\000\000\000\000\000\000\000\004\000\000\000[\000\000\000\000\000\000\000\000\000\000\000\000\000\000\000\013\000\000\000\007\000\000\0009\000\000\000\341\001\000\000\000\000\000\000\236\000\000\000\002\000\000\000\001\000\000\000F\000\000\000\027\000\000\000\022\000\000\000\013\000\000\000#\000\000\000\031\000\000\000.\000\000\000\006\000\000\000\002\000\000\000\001\000\000\000\000\000\000\000\000\000\000\000\016\000\000\000\000\000\000\000I\001\000\000\004\000\000\000/\000\000\000\003\000\000\000\002\000\000\000\001\000\000\000\003\000\000\000\000\000\000\000\000\000\000\000\017\000\000\000\000\000\000\000\007\000\000\000\017\000\000\000\006\000\000\000\000\000\000\000\016\000\000\000\330\003\000\000\006\000\000\000\273\001\000\000\017\000\000\000\000\000\000\000\013\000\000\000\000\000\000\000Q\000\000\000\000\000\000\000\000\000\000\000\010\000\000\000\003\000\000\000\000\000\000\000\024\000\000\000\003\000\000\000\341\001\000\000\347\001\000\000\013\000\000\000\000\000\000\000\002\000\000\000\001\000\000\000\022\000\000\000\013\000\000\000&\000\000\000\240\000\000\000\000\000\000\000\016\000\000\000\033\001\000\000\t\000\000\000\005\000\000\000\030\000\000\000\006\000\000\000\000\000\000\000n\000\000\000\024\000\000\000D\000\000\000\003\000\000\000\000\000\000\000\032\000\000\000\010\000\000\000T\000\000\000\000\000\000\000\'\000\000\000\000\000\000\000\'\000\000\000\t\000\000\000\032\000\000\000\377\000\000\000\000\000\000\000\002\000\000\000\001\000\000\000\206\002\000\000\264\003\000\000\020\000\000\000\003\000\000\000k\000\000\000\000\000\000\000\000\000\000\000\000\000\000\000\016\000\000\000\204\002\000\000\266\000\000\000\010\000\000\000U\001\000\000\007\000\000\000\000\000\000\000\000\000\000\000\002\000\000\000\001\000\000\000\033\000\000\000\000\000\000\000\n\000\000\000\005\000\000\000V\001\000\000\004\000\000\000\006\000\000\000\000\000\000\000\001\001\000\000\007\000\000\000\005\000\000\000\000\000\000\000\017\000\000\000\000\000\000\000\007\000\000\000\000\000\000\000\013\000\000\000\000\000\000\000\370\002\000\000\002\000\000\000\001\000\000\000_\000\000\000\034\000\000\000\032\000\000\000\005\000\000\000\014\000\000\000\000\000\000\000\004\000\000\000\000\000\000\000\000\000\000\000a\000\000\000\033\000\000\000\266\000\000\000\037\000\000\000>\000\000\000\000\000\000\000\000\000\000\000\000\000\000\000\002\000\000\000\001\000\000\000\003\000\000\000\266\001\000\000\013\000\000\000h\001\000\000m\000\000\000\000\000\000\000(\002\000\000\000\000\000\000k\000\000\000\031\000\000\000;\000\000\000\000\000\000\000\007\000\000\000\013\000\000\000\000\000\000\000\002\000\000\000\001\000\000\000\322\001\000\000\324\000\000\000\022\000\000\000\032\000\000\000\036\000\000\000\003\000\000\000\341\001\000\000\004\000\000\000\005\000\000\000\000\000\000\000\004\000\000\000\000\000\000\000\000\000\000\000\037\000\000\000\000\000\000\000\003\000\000\000\000\000\000\000\007\000\000\000\000\000\000\000\000\000\000\000\004\000\000\000\006\000\000\000d\001\000\000\010\000\000\000\000\000\000\000\003\000\000\000\000\000\000\000\017\000\000\000\000\000\000\000\010\000\000\000\000\000\000\000\007\000\000\000\000\000\000\000\003\000\000\000\000\000\000\000\000\000\000\000\037\000\000\000\000\000\000\000\003\000\000\000\000\000\000\000\010\000\000\000\000\000\000\000\007\000\000\000\003\000\000\000\000\000\000\000\000\000\000\000\004\000\000\000\003\000\000\000\000\000\000\000\002\000\000\000\001\000\000\000\003\000\000\000P\002\000\000\236\000\000\000\204\000\000\000\000\000\000\000\216\000\000\000D\000\000\000\003\000\000\000\000\000\000\000\370\002\000\000\'\000\000\000X\000\000\000\003\000\000\000\000\000\000\000\004\000\000\000\201\000\000\000\002\000\000\000\001\000\000\000\221\000\000\000\002\000\000\000\001\000\000\000\221\000\000\000\000\000\000\000\000\000\000\000\224\003\000\000\000\000\000\000\010\000\000\000\003\000\000\000\325\003\000\000\000\000\000\000\000\000\000\000\010\000\000\000\000\000\000\000\002\000\000\000\001\000\000\000 