node {
  name: "Const"
  op: "Const"
  attr {
    key: "_output_shapes"
    value {
      list {
        shape {
          dim {
            size: 50
          }
          dim {
            size: 1000
          }
        }
      }
    }
  }
  attr {
    key: "dtype"
    value {
      type: DT_FLOAT
    }
  }
  attr {
    key: "value"
    value {
      tensor {
        dtype: DT_FLOAT
        tensor_shape {
          dim {
            size: 50
          }
          dim {
            size: 1000
          }
        }
        tensor_content: "\363\302\035;\342T\2419\342T\2419\035\010\202;\230\214\333:\342T\2419\023m&<B\013\203;\323\267o;\342T\2419]J3;F\301\336:\342T\2419naJ;\347\267 ;\266/W;}\262\240:\342T\2419\342T\2419\203\014\036;y\307\031;\342T\2419\342T\2419\342T\2419\006^a;\342T\2419\342T\2419g\216\027;\034(\024;\207\005\274:\342T\2419\224B(;\342T\2419\342T\2419\342T\24198FG;dL\361:\342T\2419\342T\2419O\355.;\342T\2419\227\360\210;\017\021\207;\342T\2419\351\220\330:\342T\2419T\315\210;\030\304/;\325\203j;\342T\2419\342T\2419\260\021\251;S{r;\342T\2419\303\021\315:\235%\203:\216\257\000;\301\255\223;\342T\2419\342T\2419\331\024l:\342T\2419\342T\2419\311\372,;\013l\225;\342T\2419\342T\2419\342T\2419\342T\2419\274\211\214:\351\375\030;u\357N;\342T\2419\"\261\210:\342T\2419^\253c;M\341\r;\342T\2419\342T\2419v\311\331:di\302:l\300\355:\342T\2419\342T\2419\342T\2419.\006\205;\342T\2419\334\300\324:\342T\2419\342T\2419\251}\010;j4\024;-+k;#\244\240:\342T\2419\322n\004;\342T\2419M\341\r;\376\345\263:\342T\2419b\t>;Q*\204;\342T\2419w\273\001;\342T\2419\213\234\273:\342T\2419\247\3252;\342T\2419\342T\2419]`\245;\257\311\234:\342T\2419\220\377\003;\023`<;\340\244\332:\306\245\306:\342T\2419\277\235p;\342T\2419\342T\2419\342T\2419\342T\2419\342T\2419hZ1;\342T\2419\342T\2419\342T\2419\342T\2419\342T\2419=\031\221:\342T\2419\210\271\322:l\300\355:\342T\2419\361[\032;\017\237\334:\342T\2419\231^\261:\342T\2419hZ1;\2152\313:\342T\2419\342T\2419\342T\2419\342T\2419\344\230J;k\255\336:\377\240\372:\353\024\t;MO\310:H\255\204:\342T\2419\003\300\024;\342T\2419W\320#;\342T\2419\201#\024;\342T\2419GXY;\342T\2419Z \214;\031\331\246:\342T\2419\342T\2419\334\'=;\342T\2419\234\305\243:\342T\2419R\247\253;\342T\2419D\032{;\342T\2419J)\005<\342T\2419\243\251?;\342T\2419\266,\200;.\376\357;\342T\2419H\255\204:\342T\2419\342T\2419\342T\2419\342T\2419\342T\2419\240\020\206:\241\263,:l\300\355:\342T\2419\342T\2419\253\353m:\342T\2419\342T\2419\342T\24193\306\341:\342T\2419\342T\2419\342T\2419\342T\2419\342T\2419\342T\2419\342T\2419\342T\2419hZ1;\342T\2419\342T\2419\342T\2419naJ;\342T\2419\342T\2419\342T\2419\245W1;\251^9;\342T\2419\342T\2419HS\022;\3053\321:\342T\2419\342T\2419\342T\2419\367\300\365:\342T\2419\210\271\322:\342T\2419l\260\242:\342\010u;\270\234\022;\342T\2419\\\013\345:\342T\2419\342T\2419N*\006;\342T\2419\342T\2419\342T\2419\342T\2419\342T\2419\342T\24193:\240:\342T\2419\342T\2419\310\323s:\345\365\343:\342T\2419\342T\2419\202\340\244:\342T\2419F\022@;\342T\2419\342T\2419\237\200\270:\342T\2419\342T\2419\342T\2419\342T\2419\342T\2419\342T\2419\342T\2419\342T\2419\342T\2419%\211\265:\342T\2419\342T\2419\342T\2419\342T\2419\004\315\016;\342T\2419\342T\2419\342T\2419k\304=;\342T\2419/L\202;\342T\2419_\246\242;\342T\2419\342T\2419\2055\030;\342T\2419\342T\2419\353\024\t;\342T\2419\342T\2419\342T\2419\342T\2419\342T\2419\342T\2419\342T\2419\342T\2419\342T\2419\341\351\373:\342T\2419\342T\2419\342T\2419\375\250\247:%\211\265:\342T\2419\342T\2419\342T\2419\342T\2419\264\201A;\342T\2419\342T\2419\360r\206;\342T\2419\342T\2419\342T\2419\177\347\307:\342T\2419\337~\232:8\230\246:\342T\2419\021Jx;\342T\2419\342T\2419\244+X;hZ1;\342T\2419\342T\2419\342T\2419\342T\2419\342T\2419\342T\2419\205\255\225:\342T\2419SB\005;\342T\2419\342T\2419\342T\2419\342T\2419\342T\2419\342T\2419\324|\025;\342T\2419\342T\2419\342T\2419\342T\2419\342T\2419\004\315\016;\342T\2419\342T\2419\342T\2419\347\267 ;\342T\2419\342ec:S\227\022;\342T\2419\342T\2419\342T\2419\342T\2419\342T\2419\342T\2419\342T\2419\354\307\t;\342T\2419\342T\2419\342T\2419\342T\2419\342T\2419\342T\2419\342T\2419\342T\24197\014\227:\342T\2419\342T\2419\004\315\016;\327cS;\342T\2419\342T\2419\342T\2419\342T\2419\337\247\270:<\207\321;\030\304/;\014\t;;\243\206\214;\342\0307;-\273P;\273\273`;\366\017X;\374\314\235;\342T\2419\342T\2419\005\377\234:<o\035;\342T\2419\342T\2419\342T\2419\342T\2419\362\323m;\r\3474;\342T\2419\342T\2419\342T\2419:\020\210;\342T\2419\342T\2419\333\3246;\342T\2419\342T\2419\342\030\033;\342T\2419\342T\2419\342T\2419\342T\2419\342T\2419\342T\2419\342T\2419\342T\2419\256\307m:\342T\2419\222#\013;s\352\024;\342T\2419\342T\2419\342T\2419\342T\2419\342T\2419\342T\2419\260\376\200;\342T\2419\342T\24193\003\261:\342T\2419\342T\2419\245W1;\342T\2419\342T\2419\t\010\022;\342T\2419\342T\2419\342T\2419N*\006;\342T\2419\342T\2419\342T\2419\342T\2419\342T\2419\342T\2419\342T\2419\342T\2419\342T\2419\342T\2419\352\233\247:c\245\306:\342T\2419\342T\24191t\325:\342T\2419\334\'=;\342T\2419\342T\2419\342T\2419\342T\2419\342T\2419\342T\2419\342T\2419\220\033);\342T\2419\342T\2419\342T\2419Ee_;\342T\2419\342T\2419\342T\2419\342T\2419\371|g:\251^9;\342T\2419\342T\2419\342T\2419\342T\2419\342T\2419\345\324-;\342T\2419\251^9;\000\005\301;j\312\311:\372\272\305;\001:L;\t\312\303:\201\233\232:\342T\2419\342T\2419\257\003\343:\342T\2419\342T\2419\313\001c;\342T\2419\342T\2419\342T\2419\342T\2419\342T\2419\342T\2419\316\331\007;\223H\345:\345\324-;\244\256@;/\017!;\251^9;\342T\2419\342T\2419\342T\2419\342T\2419\342T\2419\342T\2419\342T\2419\342T\2419\342T\2419\251^9;\342T\2419\342T\2419B\006\237;\342T\241904\361:g\374\223:\342T\2419\006\014Z;\342T\2419r\2778;\367\035Q;\342T\2419\342T\2419\342T\2419\264\2102;\027\335\035;\342T\2419\342T\2419\344D%;\276\275*;\342T\2419~\243\000;\342T\2419\355/3;\342T\2419\342T\2419|\037\237;\342T\2419\342T\2419\342T\2419\342T\2419\264\201A;\342T\2419\363W\013;\342T\2419\342T\2419\342T\2419\342T\2419\342T\2419\220\033);\342T\2419\342T\2419\342T\2419\023\263Y;\342T\2419\342T\2419#\2219;\342T\2419\013o\240:\213\355<;\246@\366:\342T\2419\345\324-;\342T\2419\342T\2419\342T\2419\342T\24196\027\372:\342T\2419\342T\2419\220\033);\342T\2419\342T\2419\342T\2419\342T\2419Qu\231;\264\201A;\342T\2419\361v\255:\251^9;\342T\2419\342T\2419\342T\2419\342T\2419\270\234\022;\342T\2419\342T\2419\342T\2419\342T\2419\342T\2419\342T\2419\342T\2419\342T\2419\342T\2419\342T\2419\342T\2419\342T\2419\342T\2419\342T\2419\342T\2419\342T\2419\342T\2419\342T\2419\342T\2419\270\234\022;\342T\2419\315&\224:\342T\2419\342T\2419\342T\2419\342T\2419\245\257\006;\342T\2419ZM\007;)\026\222:\342T\2419\342T\2419\342T\2419h\3469;\342T\2419\342T\2419\342T\2419\342T\2419\342T\2419\0309[;\264\201A;\031*\200;\342T\2419\177 #;\342T\24196\367\216;\220D\330:,\273\251:\"\325\270:\342T\2419\342T\2419\342T\2419\342T\2419\342T\2419\342T\2419\342T\2419\342T\2419\342T\2419:\311r;\342T\2419w\221F;\342T\2419\342T\2419M\341\r;\342T\2419\342T\2419\342T\2419\342T\2419\206&\203:\342T\2419\342T\2419\342T\2419N\001\000;\342T\2419\342T\2419\342T\2419\342T\2419\342T\2419\342T\2419\342T\2419\342T\2419\342T\2419\342T\2419\342T\2419\342T\2419\234\245\023;G\267\337:\342T\2419\342T\2419\342T\2419\342T\2419\342T\2419\342T\2419\342T\2419\342T\2419\342T\2419hZ1;\342T\2419\276\242D;\342T\2419\342T\2419\342T\2419\342T\2419\342T\2419\342T\2419\342T\2419R94;\342T\2419\342T\2419\342T\2419/\017!;\342T\2419\342T\2419\342T\2419\342T\2419\342T\2419\342T\2419\342T\2419\342T\2419\342T\2419\342T\2419\342T\2419\342T\2419\342T\2419\342T\2419\342T\2419\342T\2419\342T\2419\342T\2419\342T\2419\342T\2419\342T\2419\342T\2419\342T\2419\342T\2419\342T\2419\342T\2419\342T\2419N*\006;\342T\2419\342T\2419\333\3246;\342T\2419\342T\2419\342T\2419\342T\2419\342T\2419\342T\2419\342T\2419\342T\2419\342T\2419\342T\2419\342T\2419N*\006;\342T\2419\342T\2419\342T\2419\342T\2419\342T\2419\342T\2419\342T\2419\342T\2419\342T\2419\342T\2419\342T\2419\342T\2419\342T\2419\342T\2419\342T\2419N\001\000;f\347p;\342T\2419\342T\2419\342T\2419\342T\24197 \216;\342T\2419\342T\2419{\243\373;\342T\2419\342T\2419\342T\2419\342T\2419\342T\2419\342T\2419\342T\2419\342T\2419\342T\2419\342T\2419\342T\2419R94;\354\307\t;!\017\037;\342T\2419\2055\030;\323\371\224;<e\177;)\370\340:\342T\2419\331\024\265;\371<\200;\342T\2419\342T\2419\342T\2419\342T\2419\342T\2419\342T\2419\245\270\261:\342T\2419\2055\030;M\341\r;\342T\2419\342T\2419\342T\2419\342T\2419\003-\231:\342T\2419\342T\2419\342T\2419\342T\2419\375}\261:\342T\2419\241\254\243:\342T\2419P\255W;\342T\2419\342T\2419\345\324-;\342T\2419\342T\2419\342T\2419\001:L;\342T\2419\342T\2419\342T\2419\342T\2419\342T\2419\342T\2419\342T\2419\342T\2419\342T\2419\342T\2419\342T\2419\342T\2419\342T\2419\342T\2419\342T\2419\342T\2419\017b\264:\342T\2419\342T\2419\342T\2419\342T\2419\342T\2419\342T\2419\342T\2419\342T\2419\342T\2419\342T\2419\342T\2419\342T\2419\342T\2419\342T\2419\342T\2419\342T\2419\342T\2419\342T\2419Y\'\224:\342T\2419\342T\2419\342T\2419\342T\2419\357O\003<\342T\2419\342T\2419\342T\2419\342T\2419\342T\2419\342T\2419\342T\2419\342T\2419\342T\2419\342T\2419\342T\2419\342T\2419\342T\2419\342T\2419\342T\2419\342T\2419\342T\2419\342T\2419\342T\2419\207p-;\342T\2419\342T\2419\342T\2419\342T\2419\342T\2419\342T\2419\342T\2419\342T\2419\342T\2419\342T\2419\342T\2419\342T\2419\342T\2419\342T\2419\342T\2419\342T\2419\342T\2419\342T\2419\342T\2419\342T\2419\342T\2419\342T\2419\342T\2419\342T\2419\342T\2419\342T\2419\342T\2419\342T\2419\342T\2419\342T\2419\342T\2419\026\264\';\342T\2419\342T\2419\342T\2419\342T\2419\355\222\354:\302\241I;\342T\2419\342T\2419\342T\2419\342T\2419\342T\2419\342T\2419\342T\2419\342T\2419\342T\2419\342T\2419\342T\2419\342T\2419\251^9;\342T\2419\342T\2419\203$ <\342T\2419\334\'=;\342T\2419\276\242D;\363\326\236:\342T\2419\342T\2419\342T\2419\342T\2419\362\231\246:\342T\2419T\331\314:\342T\2419\342T\2419\342T\2419\342T\2419\342T\2419\342T\2419\342T\2419y\250\310:\342T\2419\342T\2419\203C\356:\010\347\350:Ki\324:\224>\276:\217\351\351:\342T\2419\342T\2419\342T\2419\342T\2419\342T\2419\342T\2419\342T\2419\342T\2419\342T\2419\342T\2419\342T\2419\342T\2419\342T\2419\342T\2419\342T\2419\342T\2419\342T\2419\342T\2419\342T\2419\342T\2419\342T\2419\342T\2419\342T\2419\342T\2419\001:L;\342T\2419\342T\2419\342T\2419\342T\2419\342T\2419\353\216\310;\342T\2419\342T\2419\342T\2419\342T\2419\342T\2419\r\3474;\342T\2419\342T\2419\342T\2419\342T\2419w\001\000;\021\251\2009\021\251\2009\237\217!;\360\247\300:\007\212-;\021\251\2009\216)X;v{+;e\221\371:\021\251\2009\206\227\364:\021\251\2009\021\251\2009\021\251\2009\266HR;\347\343\227:\003\032\214:\021\251\2009\213\237(;\303\347\216:\021\251\2009\021\251\2009\021\251\2009]\364^;\021\251\2009\021\251\2009\021\251\2009\177\314\353:\340\021g;\021\251\2009-t.;\021\251\2009\254~\240:\021\251\2009\260\255\035;\265\301\254:\177\315\374:\021\251\2009^\217\002;\021\251\2009\223\203 ;\3325H;\321\347\001;L\346\251:\021\251\2009I\2774;M\224\260;\021\251\2009\021\251\2009&&k;\021\251\2009\207\251~;\021\251\2009\353\212\\;\326\225T;\343U\355:M\021.;\021\251\2009\021\251\2009n,\217:\021\251\2009\267#\246:\021\251\2009\021\251\2009\021\251\2009\021\251\2009\021\251\2009.\253\214;K\343\340:\021\251\2009\021\251\2009\021\251\2009\237\0213;\241\252\354:7\260\025;\021\251\2009\021\251\2009\021\251\2009iD\304:\377\220\327:\021\251\2009\021\251\2009\021\251\2009\014N\203:Z6\034;\323\255\207:c\253u;\021\251\2009\021\251\2009\376\251\020;\333\356\022;\264Y\212:\036\272);\021\251\2009\350\311\000;\021\251\2009\021\251\2009\310\234\274:\021\251\2009\010td;X\n\033;\021\251\20098\201y;\021\251\2009\021\251\2009\311\315\334:\021\251\2009\021\251\2009\021\251\2009d\0171:\230\225\201;\022V:;#\273F;\366\315Y:\021\251\2009\021\251\2009m-\311:\357\036\213:\002\317\263:\021\251\2009\021\251\2009\021\251\2009\021\251\2009~\021\000;:\235%;\021\251\2009-\n\323:\021\251\2009\021\251\2009\021\251\2009\021\251\2009^`\342:\320\272\326:\021\251\20098\263\214:\331\265\264;\021\251\2009\3024\205:\021\251\2009\021\251\2009\021\251\2009\263\223\020;\021\251\2009\021\251\2009\177\3005;\021\251\2009\021\251\2009b>\033;8Z\027;\021\251\2009:\001W;\021\251\2009\333\326\303:EJ\';\021\251\2009\021\251\2009/F\262;\305\204\030;\207c\247:\021\251\2009\\\364;;\021\251\2009lv\202;\300\227\200:\021\251\2009\021\251\2009\013\355\r;\021\251\2009\021\251\2009l]\236;\021\251\2009\021\251\2009\021\251\2009\306T?;\243\345\230;\021\251\2009\253\0034;\021\251\2009\332l\202;\310\221\262:PM\316:\262i\\;\021\251\2009a\335\263:\243r\276:\021\251\2009\2466\267;C<\273:\021\251\2009\237NE;\021\251\2009\021\251\2009\021\251\2009\021\251\2009\021\251\2009\231\303\276:\021\251\2009V\306y;\021\251\2009\021\251\2009\021\251\2009\021\251\2009\361\234\037;\021\251\2009\021\251\2009\021\251\2009\021\251\2009\021\251\2009F\311\350:\021\251\2009\021\251\2009\021\251\2009\021\251\2009\021\251\2009\021\251\2009g\3468;\217&l:^ \375:\t~\376:\021\251\2009I\331\212:\274\210\333:\344\373\352:\021\251\2009\274>\014;\tVg:\021\251\2009\021\251\2009\337\336.;\021\251\2009v\354\023;\036\357\021;\021\251\2009\021\251\2009\253\257C;\341*\337:\021\251\2009\021\251\2009\021\251\2009\021\251\2009\021\251\2009\000\035\311:\263\327\363:\021\251\2009\021\251\2009\021\251\2009\235q\020;\030\3403:\021\251\2009\021\251\2009\021\251\2009\2569\034;\021\251\2009\021\251\2009o2b;\021\251\2009\021\251\2009\021\251\2009\021\251\2009\021\251\2009\021\251\2009\021\251\2009\021\251\2009\021\251\2009\251\255\216:\021\251\2009\021\251\2009&o\350:+\355\023;\006b\267:\021\251\2009Wb\211:\332\206};\021\251\2009\021\251\2009\021\251\2009\021\251\2009q\332r;\021\251\2009^U\255;]\242\240;\021\251\2009\021\251\2009Q\336\350:6mq;\021\251\2009\021\251\2009\235\240\022;\021\251\2009\021\251\2009\347$\000;\021\251\2009\t~\376:\263\024\350:\251\346\007;\021\251\2009\021\251\2009q\354\016;\021\251\2009\021\251\2009\021\251\2009j\\\240;\021\251\2009<r\356:\021\251\2009\021\251\2009\372\370!;\021\251\2009\021\251\2009\032\010];\274>\014;\021\251\2009\021\251\2009\021\251\2009\013=\334:\021\251\2009\021\251\2009\021\251\2009\021\251\2009\223\317\032;\021\251\2009F\311\350:\021\251\2009\021\251\2009<r\356:\021\251\2009\021\251\2009\021\251\2009L\270\301:\021\251\2009\021\251\2009\313\261\321;\021\251\2009\021\251\2009\021\251\2009\021\251\2009\246\370\003;\242\237L;\021\251\2009\021\251\2009\021\251\2009j\346\223:\021\251\2009\024f\014;\344^\276;\021\251\2009\021\251\2009\021\251\2009\021\251\2009\261&\005;\246_\222;\021\251\2009\021\251\2009\021\251\2009\021\251\2009\021\251\2009\021\251\2009\021\251\2009\357d\r;\021\251\2009\021\251\2009\021\251\2009\253\257C;\021\251\2009\021\251\2009\304\352\027;\021\251\2009\322m\331:\021\251\2009\021\251\2009\021\251\2009\265\237\017;\nut;\374\021#;i\247\000;&o\350:\021\251\2009\021\251\2009\021\251\2009\021\251\2009\021\251\2009\021\251\2009:\267\222:\021\251\2009\021\251\2009\021\251\2009\021\251\2009\021\251\2009\021\251\2009\364V\n;\021\251\2009\021\251\2009\021\251\2009\021\251\2009\021\251\2009\021\251\2009!r4;\021\251\2009\214\227&;\220\236\000;\021\251\2009:\235%;\021\251\2009Y\007 ;\021\251\2009\223\304\026;\235\240\022;\021\251\2009W\212\370:\021\251\2009\021\251\2009\021\251\2009\021\251\2009\037&H;\021\251\2009\021\251\2009\021\251\2009\313\230I;\021\251\2009n$7;\021\251\2009\021\251\2009\021\251\2009\021\251\2009\021\251\2009ZM\014;\021\251\2009\021\251\2009\\\'\032;\021\251\2009\021\251\2009\021\251\2009\021\251\2009\021\251\2009\021\251\2009e\206>;\021\251\2009\246\370\003;\021\251\2009\021\251\2009\021\251\2009\021\251\2009\304\352\027;\021\251\2009\226\365 ;\332\242\242;\204;\356:\246\370\003;\021\251\2009\021\251\2009\021\251\2009\021\251\2009c\013b;\214\227&;\021\251\2009\021\251\2009\021\251\2009\021\251\2009\212\366\007;\226\365 ;\021\251\2009\021\251\2009\021\251\2009\212\366\007;&w\276:\244\335\225;\204\277&;n;\005;\021\251\2009\021\251\2009\021\251\2009\021\251\2009\021\251\2009\217\377\001;\021\251\2009\257\323\202;\021\251\2009\224~{:\021\251\2009\021\251\2009\021\251\2009\021\251\2009\276aO;~\036\353:\021\251\2009\021\251\2009\021\251\2009\021\251\2009\274>\014;\021\251\2009\021\251\2009\021\251\2009\021\251\2009\311i\346:\234\370\363:\021\251\2009\021\251\2009\021\251\2009\021\251\2009\021\251\2009\021\251\2009\021\251\2009\021\251\2009\021\251\2009\021\251\2009\021\251\2009\021\251\2009\021\251\2009\021\251\2009\021\251\2009\255\215\212;\021\251\2009\214\253\000;\021\251\2009\021\251\2009\021\251\2009\021\251\2009\021\251\2009\021\251\2009\241\252\354:\021\251\2009\021\251\2009\021\251\2009\237\273\033;\351}F;\021\251\2009\021\251\2009n\364_;\332\205\262:yAA;\2372\365:\021\251\2009\021\251\2009\021\251\2009\021\251\2009\021\251\2009~M\231:\021\251\2009\021\251\2009\021\251\2009\021\251\2009\021\251\2009\021\251\2009\021\251\2009\021\251\2009\021\251\2009\021\251\2009\360VB;\021\251\2009\021\251\2009\021\251\2009\177\272s;\003\314\331:\305\204\030;W)R;\021\251\2009\021\251\2009\021\251\2009\021\251\2009\021\251\2009\021\251\2009\021\251\2009\342\336\017;\021\251\2009\021\251\2009e\221\371:\021\251\2009\021\251\2009\021\251\2009\255v\013;\021\251\2009\021\251\2009\021\251\2009\021\251\2009\237\370\005;\021\251\2009\021\251\2009\021\251\2009\021\251\2009\021\251\2009\021\251\2009\021\251\2009\021\251\2009\021\251\2009\021\251\2009\016\376\036;\021\251\2009\021\251\2009\021\251\2009\247+\177;\021\251\2009\250\246};\021\251\2009\021\251\2009\021\251\2009\021\251\2009\021\251\2009\021\251\2009\225\317\024;\306(\370:\021\251\2009\021\251\2009\021\251\2009\021\251\2009\021\251\2009z\301\007;EJ\';\021\251\2009\021\251\2009\021\251\2009\021\251\2009\021\251\2009\021\251\2009\021\251\2009\021\251\2009\021\251\2009\021\251\2009\021\251\2009\021\251\2009\021\251\2009\021\251\2009\021\251\2009\021\251\2009\021\251\2009\021\251\2009\021\251\2009\021\251\2009A\355\032;\021\251\2009\021\251\2009\021\251\2009\021\251\2009K\217\231:\021\251\2009\021\251\2009\021\251\2009\021\251\2009\021\251\2009\021\251\2009\021\251\2009\021\251\2009\222\207\367:\341*\337:\021\251\2009\021\251\2009\222u\330;\021\251\2009\021\251\2009\021\251\2009\214\227&;\246_\222;\021\251\2009\021\251\2009\021\251\2009\021\251\2009\021\251\2009\021\251\2009\021\251\2009\021\251\2009\021\251\2009\021\251\2009\021\251\2009z\310\235;\021\251\2009\2569\034;\230\334.;\021\251\2009\021\251\2009\021\251\2009\021\251\2009\021\251\2009\021\251\2009\021\251\2009\021\251\2009\021\251\2009U\357\030;\n\200\225;\021\251\2009\021\251\2009\021\251\2009\021\251\2009\021\251\2009\021\251\2009\021\251\2009\021\251\2009\021\251\2009\021\251\2009\021\251\2009\021\251\2009\021\251\2009\021\251\2009\021\251\2009\021\251\2009\021\251\2009\021\251\2009\021\251\2009\021\251\2009\021\251\2009\021\251\2009\021\251\2009\021\251\2009\270\222\013;\021\251\2009\342\"\022;\021\251\2009.\020\024;\021\251\2009\021\251\2009\021\251\2009\006A-;\021\251\2009\021\251\2009\021\251\2009\021\251\2009\021\251\2009\021\251\2009\021\251\2009\204\277&;\2569\034;\204\277&;\204\277&;\021\251\2009\021\251\2009b$\224;\274\306\027;\021\251\2009v\354\023;\021\251\2009\021\251\2009\307c\333:\370\366<;\021\251\2009\021\251\2009\021\251\2009\021\251\2009@e4;\021\251\2009\021\251\2009\021\251\2009S\316\r;\021\251\2009\021\251\2009\021\251\2009\021\251\2009\021\251\2009\021\251\2009\021\251\2009\337\212\236;\021\251\2009\021\251\2009\021\251\2009\211\244=;\021\251\2009\021\251\2009\021\251\2009\021\251\2009\021\251\2009\021\251\2009\030z\010;\021\251\2009EJ\';\021\251\2009\021\251\2009\021\251\2009\177\315\374:\021\251\2009#~\253:H\232\242:\213y\252:\355\000\256:\ry\242:rw\206;\021\251\2009 9\205;\021\251\2009v\354\023;\021\251\2009\021\251\2009\021\251\2009\021\251\2009\036 \321;\021\251\2009\021\251\2009\021\251\2009\021\251\2009\021\251\2009\021\251\2009\021\251\2009\021\251\2009\021\251\2009\021\251\2009\271$\370:e\206>;\021\251\2009\021\251\2009\021\251\2009\202\341 ;\021\251\2009\021\251\2009\021\251\2009\t~\376:\021\251\2009\021\251\2009\237NE;n$7;\021\251\2009~F\026;\021\251\2009\264\261m;\021\251\2009\021\251\2009\021\251\2009\006A-;\021\251\2009\021\251\2009\021\251\2009\016\376\036;\202\341 ;\003T\024;\021\251\2009\021\251\2009\021\251\2009\021\251\2009\021\251\2009\021\251\2009\021\251\2009\021\251\2009\261&\005;\021\251\2009\021\251\2009\021\251\2009\342\336\017;\021\251\2009\021\251\2009\021\251\2009\021\251\2009\016\376\036;\021\251\2009\213\254q;\021\251\2009p\225&;\021\251\2009\2027\003;\021\251\2009\021\251\2009\021\251\2009\021\251\2009\021\251\2009\021\251\2009\021\251\2009\021\251\2009\341*\337:\021\251\2009\021\251\2009\021\251\2009\021\251\2009\021\251\2009\021\251\2009\021\251\2009\021\251\2009\021\251\2009\021\251\2009\021\251\2009\021\251\2009\021\251\2009\021\251\2009\021\251\2009\021\251\2009\021\251\2009\021\251\2009\021\251\2009e\221\371:\021\251\2009\021\251\2009\021\251\2009\021\251\2009\021\251\2009\021\251\2009\021\251\2009\313w3;\021\251\2009\021\251\2009\021\251\2009\021\251\2009:\235%; \367\010;\021\251\2009\021\251\2009\375g&;\271\322\035;\326\030$;\021\251\2009\021\251\2009\021\251\2009\021\251\2009\021\251\2009\021\251\2009\021\251\2009\021\251\2009\030z\010;I\205\355:\021\251\2009\360VB;\021\251\2009\021\251\2009\235\027\363:S\316\r;\021\251\2009\021\251\2009\207o\200;\202\341 ;\021\251\2009\021\251\2009\021\251\2009\342h\316;\021\251\2009\021\251\2009S\316\r;\021\251\2009\021\251\2009\021\251\2009\021\251\2009\021\251\2009\021\251\2009\021\251\2009\021\251\2009\021\251\2009\021\251\2009\021\251\2009\343\032\317;\021\251\2009\021\251\2009\021\251\2009\021\251\2009\021\251\2009\362F\301;\021\251\2009\274\213\303;\021\251\2009\021\251\2009\036\367\251;\343\350a;EJ\';\021\251\2009\021\251\2009\360VB;g\"/;\021\251\2009\021\251\2009\021\251\2009\021\251\2009\021\251\2009\021\251\2009\021\251\2009\021\251\2009\021\251\2009\021\251\2009\021\251\2009\021\251\2009\021\251\2009\021\251\2009\021\251\2009\021\251\2009\021\251\2009\021\251\2009\021\251\2009\021\251\2009\021\251\2009\021\251\2009\322\242K;\021\251\2009\021\251\2009\265\333\251;\243$\"<`[\233;\373\352\001<\021\251\2009\021\251\2009\021\251\2009\021\251\2009\021\251\2009\021\251\2009\021\251\2009\021\251\2009\021\251\2009\021\251\2009\021\251\2009\021\251\2009\021\251\2009\021\251\2009\021\251\2009\021\251\2009\021\251\2009\021\251\2009\021\251\2009\021\251\2009\021\251\2009\021\251\2009\220\306+;\246\371\004;\277\334\031;\031\307\1779~\222o;\024\347\225:t\ru:\031\307\1779\377\263\200;\257\006\032;\031\307\1779\031\307\1779\314\365\327:\031\307\1779\031\307\1779\031\307\1779\031\307\17790\347\241:\031\307\1779\031\307\1779\267\023_;^\360\217;\031\307\1779\031\307\1779\031\307\1779\234)\n;\031\307\1779\031\307\1779\375\340\261:\375\217\335:\217\370\272:\031\307\1779\250`(;\031\307\1779j*\353;\031\307\1779\304\251\221;\336x\n;\031\307\1779\204\226:;r\327\032;w\224\002;\2418\232;\236U\252:\031\307\1779\323\274\344:\031\307\1779N\024H;\031\307\1779\032\310\266:\031\307\1779j\253\235:\031\307\1779}1\336:\366\222\203;\231qC;w@Q;\331\336/;\234\367a;\031\307\1779\031\307\1779\031\307\1779\031\307\1779\2254D;U\363\302:8\375\003;\031\307\1779\031\307\1779\362\317\367:FN\355:^\"\213:\031\307\1779)\303\272:\031\307\1779R\220\203;\277]\000;\032\205\013;\031\307\1779\337\203\345:\373\226\027;\031\307\1779\031\307\1779\031\307\1779\031\307\1779\031\307\1779\263\362\013;\'N\224;\352\302x:\323c\257:\031\307\1779\031\307\1779\257g\254;F\323\003;\031\307\1779nu\247:\3176\315:#}A;\031\307\1779\031\307\1779\224\270\233:\031\307\1779$\376:;&\231\307;\303\373\350:\035\343\017;\031\307\1779<\205j;\031\307\1779\014{\242;\031\307\1779\031\307\1779\031\307\1779\031\307\1779\021\252\236:y\210\235:\267\335\372;\031\307\1779|\006\376:\031\307\1779^A\343;\031\307\1779\031\307\1779\031\307\1779\031\307\1779\031\307\1779\031\307\1779TX+;\031\307\1779kaD;\031\307\1779\031\307\1779\031\307\1779\364\3634;2\251\212;\245\tK;\031\307\1779\313\037M;{\367\246:\031\307\1779g{\205:\345\247\375:\031\307\1779\264\226\303:\031\307\1779\370k\006;-\372!;\031\307\1779_o\252:>%\275:\314\252\001;\013\200\r;_\n\244:\320r\213;\031\307\1779R\277\242;\031\307\1779\031\307\1779\031\307\1779!`V;\031\307\1779\311\243\036;\031\307\1779Y1`;iz&;\031\307\1779\031\307\1779\031\307\1779\031\307\1779vW\204;\031\307\1779n\265\017;\031\307\1779\031\307\1779\320f,;FN\355:J\022\237:X\230\247;\031\307\1779\020\007\215:\031\307\1779\031\307\1779sHd;\314\177\260:\031\307\1779;S\256:\031\307\1779\256\2519;\023N@;\301e\234:\031\307\1779\014\343\031;\031\307\1779\t9\207;]2&;\377\352\326:\031\307\1779\031\307\1779\031\307\1779\031\307\1779\031\307\1779\031\307\1779\031\307\1779\227\022U;\023\367\037;\270W\375:\031\307\1779\031\307\1779\031\307\1779\211\271\014;\031\307\1779\031\307\1779\031\307\1779\031\307\1779\031\307\1779\032\032\000;\031\307\1779\031\307\17797\217\321:\301\225\235;\031\307\1779\031\307\1779\031\307\1779\031\307\1779\216\026H;\031\307\1779\031\307\1779\031\307\1779\031\307\1779Fe&;\031\307\1779\234I\035;\253\274\264:\031\307\1779\031\307\1779\031\307\1779\031\307\1779\031\307\1779\253#\224;\031\307\1779\031\307\1779\031\307\1779\252\033\027;\031\307\1779\000^8;\324\212\202;\031\307\1779\037\304-;\031\307\1779\031\307\1779\324s0;\031\307\1779\031\307\1779\266\3512;\031\307\1779\031\307\1779Jt\362:\252\322`;\337\203\345:V\253|;\031\307\1779\031\307\1779\370k\006;;,\235:\031\307\1779\031\307\1779\031\307\1779\031\307\1779$\231\314:\031\307\1779HG\363:\031\307\1779\031\307\1779\031\307\1779\020\216`;\031\307\1779\031\307\1779\226\\p;~.\030;\031\307\1779f\270\264:\031\307\1779\031\307\1779\031\307\1779\031\307\1779\031\307\1779\257m\020;\031\307\1779\031\307\1779\031\307\1779}\347-;~.\030;v\350t;\260R\316:\031\307\1779\031\307\1779\204\327\211;6\223\343:\031\307\1779&\016\031;\031\307\1779\031\307\1779\031\307\1779\031\307\1779\031\307\1779\031\307\1779\031\307\1779\031\307\1779\031\307\1779\031\307\1779\031\307\1779~\305V;\031\307\1779\021\276\023;\031\307\1779\031\307\1779\031\307\1779\031\307\1779\031\307\1779\031\307\1779\031\307\1779\031\307\1779\031\307\1779\037\251\002;\336(\001<\377w\262:\031\307\1779C2\000;\031\307\1779\n\213\360:\031\307\1779\244\251h;\356\333\022;\031\307\1779\215\0056;\353U\206;\233!\352:\031\307\1779\031\307\1779\031\307\1779\031\307\1779\031\307\1779\277\334\031;\031\307\1779`\002\276;\031\307\1779\031\307\1779\242\225\227:\031\307\1779\031\307\1779\031\307\17791\357\342:\031\307\1779\031\307\1779\031\307\1779\031\307\1779\031\307\1779\031\307\1779\031\307\1779\031\307\1779\031\307\1779\031\307\1779\031\307\1779\303\373\350:\031\307\1779\031\307\1779\031\307\1779{\265\215;\031\307\1779\031\307\1779\031\307\1779\031\307\1779\031\307\1779\031\307\1779\031\307\1779\031\307\1779\352\034=;\031\307\1779\031\307\1779\031\307\1779\031\307\1779\031\307\1779\031\307\1779\031\307\1779\374B\n;e3\207;jW\356:\031\307\1779\031\307\1779\031\307\1779\031\307\1779j\267Q;\031\307\1779\031\307\1779\224;\020;Fe&;\031\307\1779\260R\316:P\203t;\031\307\1779\031\307\1779\031\307\1779\037\244\261;\031\307\1779\031\307\1779\031\307\1779\031\307\1779\350o\025;\031\307\1779\031\307\1779\031\307\1779\031\307\1779\031\307\1779\031\307\1779\031\307\1779\031\307\1779\031\307\1779\321\263:;\031\307\1779\031\307\1779h\305\323:\031\307\1779\031\307\1779\337\202\002;!\337.;\031\307\1779\031\307\1779\031\307\1779\031\307\1779\031\307\1779\031\307\1779\350o\025;\031\307\1779\031\307\1779\373\226\027;\031\307\1779\031\307\1779\031\307\1779\031\307\1779\031\307\1779\031\307\1779\266\3512;\031\307\1779\246\037\343:\031\307\1779\031\307\1779\363\027\010;\031\307\1779\031\307\1779\034\347\355:\031\307\1779\031\307\1779\031\307\1779\340\021\323:\202\3463;\031\307\1779\277\334\031;\031\307\1779\031\307\1779\031\307\1779\031\307\1779\031\307\1779\031\307\1779\364\315\246:\031\307\1779\031\307\1779\031\307\1779\031\307\1779\300\r@;\031\307\1779\031\307\1779\031\307\1779\031\307\1779\031\307\1779\031\307\1779\031\307\1779\262>\027;\031\307\1779\276\177\220;\031\307\1779\206\025\370:\031\307\1779\031\307\1779\230\307\033;\377\003\017;\031\307\1779z\332@;\031\307\1779\031\307\1779\031\307\1779\031\307\1779Je\344:\031\307\1779Jt\362:\031\307\1779\031\307\1779\276\263C;\005\016\335:\031\307\1779\031\307\1779\031\307\1779\031\307\1779\031\307\1779\031\307\1779\031\307\1779\031\307\1779\031\307\1779\031\307\1779\031\307\1779\031\307\1779\031\307\1779\031\307\1779\031\307\1779\031\307\1779\031\307\1779~.\030;\031\307\1779\212ef;\031\307\1779\031\307\1779\031\307\1779\031\307\1779\324\302\364:\031\307\1779\3037p;N\201\234;\031\307\1779\031\307\1779\031\307\1779\364\3634;\031\307\1779P\'\023;\254~#;\340\021\323:\031\307\1779\031\307\1779\031\307\1779$MG;\351\017\362:\031\307\1779\031\307\1779\260R\316:\303$\006;\031\307\1779\031\307\1779\335M\204;\031\307\1779\031\307\1779\031\307\1779\031\307\1779\031\307\1779\031\307\1779\n\213\360:\031\307\1779\031\307\1779\301\3730;\031\307\1779\031\307\1779\031\307\1779\031\307\1779\031\307\1779\324\314\367:\031\307\1779\031\307\1779\031\307\1779}\347-;\254~#;M\tu;\031\307\1779\352\212\031;}\347-;\031\307\1779JJ\014;\031\307\1779\031\307\1779\031\307\1779\031\307\1779\031\307\1779\031\307\1779\031\307\1779\031\307\1779Fe&;\374B\n;\365VA;\036\205\033;\031\307\1779\031\307\1779j\243\024;\031\307\1779\2360I;\365VA;A/\240;\255\341/;\255\341/;P\313c;d\340\357:\342\';;\031\307\1779\031\307\1779j\243\024;\036\205\033;\337\203\345:\370\300(;:\222\326;\374B\n;\377\003\017;\306\005\207;\337\202\002;\031\307\1779\031\307\1779\031\307\1779\031\307\1779\031\307\1779f\202\307:\031\307\1779\031\307\1779\031\307\1779\031\307\1779\031\307\1779\031\307\1779\031\307\1779\031\307\1779\003\234\370:\031\307\1779\031\307\1779\031\307\1779\314\372\255;\031\307\1779\031\307\1779\031\307\1779\031\307\1779\031\307\1779\031\307\1779\031\307\1779\277\334\031;\031\307\1779bp\024;\031\307\1779\031\307\1779\031\307\1779\031\307\1779\031\307\1779\031\307\1779\236\324};\031\307\1779\031\307\1779\031\307\1779\031\307\1779\031\307\1779\031\307\1779\031\307\1779\031\307\1779\031\307\1779\273\222\005;\376v\222;\031\307\1779\031\307\1779\031\307\1779\031\307\1779\t5\337:\031\307\1779\031\307\1779\031\307\1779gb\036;\031\307\1779Yt\301:\236e\232;\031\307\1779\031\307\1779&\016\031;\031\307\1779gb\036;\031\307\1779\261\222\215;\031\307\1779\031\307\1779\031\307\1779\031\307\1779\031\307\1779\031\307\1779\031\307\1779\031\307\1779\031\307\1779\031\307\1779\031\307\1779\236\r-;\031\307\1779\031\307\1779\370\257$;\031\307\1779\031\307\1779\031\307\1779\031\307\1779\341@r;\031\307\1779\375]\020;\031\307\1779\031\307\1779\031\307\1779\031\307\1779\031\307\1779\031\307\1779\031\307\1779\031\307\1779\031\307\1779\031\307\1779v\205e;\031\307\1779\031\307\1779\031\307\1779\370\257$;\031\307\1779\031\307\1779\031\307\1779\031\307\1779\031\307\1779\031\307\1779\031\307\1779\031\307\1779\031\307\1779\031\307\1779\031\307\1779Fe&;4\375\204;\031\307\1779\031\307\1779E\304 ;\233!\352:\031\307\1779\031\307\1779\031\307\1779\273\222\005;\031\307\1779`\2278;v\336\014;\031\307\1779\22135;\22135;\031\307\1779\031\307\1779\031\307\1779\031\307\1779\031\307\1779\031\307\1779\031\307\1779\031\307\1779\031\307\1779\031\307\1779\031\307\1779\031\307\1779\031\307\1779\031\307\1779\031\307\1779\031\307\1779W3D;\250B\352;\026\307H;\333\3401;\332\375};\031\307\1779\031\307\1779\031\307\1779\031\307\1779\031\307\1779\031\307\1779\031\307\1779\031\307\1779\031\307\1779\031\307\1779\031\307\1779\037\304-;\031\307\1779\031\307\1779\031\307\1779\031\307\1779\031\307\1779\031\307\1779\031\307\1779\031\307\1779\031\307\1779\031\307\1779\031\307\1779\031\307\1779\031\307\1779\031\307\1779\342\';;\031\307\1779\031\307\1779\031\307\1779\031\307\1779\263\253!;\031\307\1779\031\307\1779\031\307\1779\031\307\1779\031\307\1779\031\307\1779\031\307\1779\031\307\1779\031\307\1779\031\307\1779\375\367\022;$\330\022<\031\307\1779\031\307\1779\031\307\1779\031\307\1779\031\307\1779\031\307\17797\305J;\032\032\000; \345\007;\031\307\1779\212M\262;\031\307\1779\031\307\1779\345\247\375:\365\036\024;\031\307\1779\031\307\1779\031\307\1779\031\307\1779\266\3512;\031\307\1779\031\307\1779JJ\014;4\375\204;\224;\020;\224;\020;\322\263\024;v\366\377:\031\307\1779\031\307\1779\031\307\1779\031\307\1779\031\307\1779\031\307\1779\032\032\000;\031\307\1779\207\020\005;\031\307\1779\t5\337:\031\307\1779\031\307\1779\207\213M;\266\326Q;\031\307\1779\031\307\1779\031\307\1779\031\307\1779\031\307\1779\031\307\1779\031\307\1779\031\307\1779\031\307\1779\031\307\1779\031\307\1779\031\307\1779\031\307\1779\031\307\1779\031\307\1779\031\307\1779\031\307\1779\031\307\1779\031\307\1779\031\307\1779\031\307\1779\031\307\1779\031\307\1779\031\307\1779\031\307\1779\031\307\1779\031\307\1779\031\307\1779\031\307\1779\031\307\1779\031\307\1779\031\307\1779\031\307\1779\031\307\1779\031\307\1779\031\307\1779\031\307\1779\031\307\1779\031\307\1779\031\307\1779\202\3463;\031\307\1779\031\307\1779\031\307\1779\031\307\1779\031\307\1779\031\307\1779\031\307\1779\031\307\1779\031\307\1779\031\307\1779\031\307\1779\031\307\1779\031\307\1779\031\307\1779\031\307\1779\031\307\1779\031\307\1779\037\304-;\031\307\1779\031\307\1779\031\307\1779\031\307\1779\031\307\1779\031\307\1779\031\307\1779\031\307\1779\031\307\1779\031\307\1779\031\307\1779\031\307\1779\031\307\1779\031\307\1779\031\307\1779\031\307\1779\031\307\1779\031\307\1779\031\307\1779\031\307\1779\031\307\1779\031\307\1779\031\307\1779\031\307\1779\031\307\1779\031\307\1779\031\307\1779\031\307\1779\031\307\1779\031\307\1779\031\307\1779\031\307\1779\342\';;\031\307\1779\031\307\1779\031\307\1779\031\307\1779\031\307\1779}\347-;\031\307\1779\031\307\1779\031\307\1779\031\307\1779\031\307\1779\031\307\1779\031\307\1779\031\307\1779\031\307\1779\031\307\1779\031\307\1779\031\307\1779\345\303#;\031\307\1779\031\307\1779\031\307\1779\031\307\1779\031\307\1779\031\307\1779\031\307\1779\031\307\1779\031\307\1779\031\307\1779\031\307\1779\031\307\1779\031\307\1779\031\307\1779\031\307\1779\031\307\1779\031\307\1779\031\307\1779\031\307\1779\031\307\1779\031\307\1779\031\307\1779\031\307\1779\031\307\1779\031\307\1779\031\307\1779\031\307\1779\031\307\1779\031\307\1779\031\307\1779\031\307\1779\031\307\1779\310\256\005;\031\307\1779\031\307\1779\031\307\1779\031\307\1779\031\307\1779\031\307\1779\031\307\1779\351\214];\031\307\1779\031\307\1779\031\307\1779\222\373\222;\352>\023;\0374\001;\033.\2029\225\272\177;T\264\346:,}\032;\033.\2029O\233\001;\362\256\206;\336\033\347;\033.\2029\325w\017;\033.\2029\033.\2029V\221\355:\033.\2029%P\231:\033.\2029\033.\2029F\343\\;0=\345:\033.\2029\033.\2029\033.\2029\036\025\017;\033.\2029\033.\2029\251\366\025;h3\265:\331\3263;py\r<\306\207Z;\033.\2029\033.\2029\033.\2029\006@K;\033.\2029\271\317Y;t`(;FV\255;\033.\2029\241\n0;\330\221Z;\033.\2029\261\262\355:$\366\r;u\307\204;\033.\2029\025\242!;\000\332\036;04A;>\272\031;\372\'d;\033.\2029:F\';\033.\2029\270\311\205:\005\240?;\033.\2029\007\330\210;\266\010K;y\351\006;\033.\2029\001\033q;\214\271>;\033.\2029\033.\2029\366\022\000;u\344\250;|\370\003;\033.\2029\266\345\010;\033.\2029\263\342\254;m\304\203;\033.\2029\033.\2029\033.\2029 E%;x\234O;\033.\2029\336\272!;\033.\2029\033.\2029\033.\2029<\027\247:g\004\233;n=:;\033.\2029\033.\2029\307\241\307;\033.\2029\357{\262:\243\252\035;\033.\2029N\255i;[\362\323:\033.\2029\033.\2029\033.\2029\340P\020;\316\375\035;k(\362:\266\364d;\033.\2029\334\276\001;\033.\2029t\023\256:\033.\2029\033.\2029:\352\211;\033.\2029\033.\2029\300\355\232;m\326o;\004s\361:\033.\2029\033.\2029\027\304\322:\213a\232:\033.\2029\033.\2029\033.\2029\033.\2029\355\241\362:\033.\2029\317\234w;\313\216\370:\033.\2029\033.\2029\033.\2029\025\236\370:\252a\210;9Q\316:\033.\2029\023\354\266;p\245u;\033.\2029\222\207u;\033.\2029\033.\2029\265\253\365:\033.\2029\033.\2029\252\031\254;v\013>;\033.\2029\270r\207;\033.\2029\033.\2029\033.\2029V\321\273;\033.\2029\231\257q:\033.\2029\033.\2029\033.\2029D\374S;\033.\2029:\ti;\232\352\002;|\331\277:`\335\233:\352\237\314:\033.\2029\033.\2029\033.\2029V\360\035;\033.\2029\033.\2029\033.\2029\033.\2029\033.\2029\033.\2029\317\301\224:\033.\2029\343\206\321:;}\225;K\206\013;\244\002\330:\224\t$;O\246%;\033.\2029\307\220G;E!\031;\272\364\217;\033.\2029*\311N;\033.\2029\337)\320:\033.\2029r\276\274:#g\313:\033.\2029\033.\2029\225\337\376:\033.\2029]\227\221;\033.\2029\033.\2029\036 \340;\033.\2029\033.\2029\033.\2029\033.\2029]\364\371:\033.\2029<8!;\232\352\002;\253k7;K\206\013;X\205\217;\262W\344:K\206\013;K\206\013;y\351\006;\315K\277:\323\001\271;yM\325:\016\307\350:\271\310\376:\025\037P;3\032\360:\033.\2029\033.\2029\033.\2029\033.\2029\033.\2029\033.\2029\317\325\311:c\325\373:\033.\2029\033.\2029\203\2755;\033.\2029\033.\2029\033.\2029\033.\2029\033.\2029\033.\2029\033.\2029\033.\2029\272A\322:\020\255\014;\033.\2029\033.\2029\033.\2029\033.\2029\033.\2029\033.\2029\033.\2029\033.\2029\033.\2029\033.\2029B\345\031;\177\233\t;\033.\2029\215,\354:\033.\2029\033.\2029\033.\2029\033.\2029\217mH;\033.\2029\033.\2029\033.\2029\033.\2029l\3604;\007\\\016;\033.\2029\241\356\306:\033.\2029/d\220;\033.\2029\033.\2029\033.\2029\033.\2029\033.\2029\2659 ;\033.\2029\033.\2029\033.\2029\257\374\021;\033.\2029\033.\2029\033.\2029\033.\2029\033.\2029\033.\2029!C\202;pv\311:\246*\325:\207\305\003; \242f;\033.\2029\033.\2029n\274\240;\033.\2029\033.\2029\033.\2029\033.\2029\033.\2029\033.\2029\033.\2029(\\E;\033.\2029\033.\2029\033.\2029\033.\2029\301\344\372:\033.\2029\033.\2029\021\201\337:\033.\2029\327\217\t;\033.\2029\217mH;\033.\2029\033.\2029\033.\2029\033.\2029\314{\000;\223J\375:\033.\2029\037\250\256;\033.\2029}\020=;\033.\2029\033.\2029\033.\2029\033.\2029\210;\007;\034\251\212;\033.\2029\033.\2029\033.\2029\033.\2029\033.\2029,\256\037;\033.\2029\033.\2029\033.\2029\033.\2029{\332<;\033.\2029\241\356\306:\033.\2029\033.\2029\005/*;\033.\2029\033.\2029\033.\2029\033.\2029\033.\2029\033.\2029\025\236\370:\033.\2029\033.\2029\033.\2029B\345\031;\033.\2029\033.\2029\033.\2029\033.\2029\033.\2029pv\311:\033.\2029\033.\2029\033.\2029\033.\2029\033.\2029\033.\2029\033.\2029\033.\2029\250\354\020;\033.\2029\033.\2029\033.\2029\033.\2029\033.\2029\033.\2029\033.\2029\033.\2029@\016\217:\340i\013;\033.\2029\033.\2029\033.\2029\033.\2029\033.\2029\033.\2029\033.\2029\235\224\241;\033.\2029\033.\2029\337)\320:X\224;;\033.\2029\033.\2029\033.\2029\033.\2029\033.\2029\033.\2029\033.\2029\271\016\331:4\030\007;\033.\2029\033.\2029\033.\2029\033.\2029\033.\2029\033.\2029\033.\2029\033.\2029{^\300;\033.\2029\033.\2029\033.\2029\033.\2029\033.\2029\033.\2029\033.\2029\033.\2029\033.\2029\033.\2029\203&\014;\033.\2029\033.\2029\343\206\321:\033.\2029\033.\2029\033.\2029\033.\2029\033.\2029\033.\2029\033.\2029\033.\2029\033.\2029\033.\2029\033.\2029\033.\2029\273\225n;\033.\2029\033.\2029|\354\005;\033.\2029\033.\2029C\221\277:\033.\2029\323/\027;\033.\2029\033.\2029\033.\2029jl\351:\2368\024;\033.\2029\033.\2029\033.\2029\033.\2029\033.\2029\033.\2029i\305:;\033.\2029\033.\2029\201\333\003;\033.\2029\202:\277:\033.\2029\232%\006;\033.\2029\033.\2029\033.\2029\033.\2029\033.\2029\033.\2029\033.\2029\313w\210;\033.\2029\231\033T;\033.\2029\033.\2029\033.\2029\033.\2029\333\356\257:A38;\352\376);\033.\2029\033.\2029\033.\2029\033.\2029\033.\2029\033.\2029\033.\2029\033.\2029\033.\2029\222\314\004;\033.\2029\033.\2029\033.\2029\033.\2029\033.\2029\033.\2029\352\237\314:\033.\2029\244)\273:\033.\2029\033.\2029\033.\2029\033.\2029\033.\2029\033.\2029\343\347\366:\033.\2029\033.\2029\033.\2029\246*\325:\033.\2029\033.\2029\033.\2029\257\374\021;\033.\2029\325V!;\033.\2029\033.\2029\033.\2029\033.\2029\033.\2029\033.\2029\033.\2029\033.\2029\033.\2029\033.\2029\033.\2029\033.\2029\033.\2029\246\234:;\033.\2029\033.\2029\033.\2029\337)\320:o\001\013;\033.\2029\033.\2029\232%\006;\0374\001;\033.\2029\033.\2029\033.\2029\033.\2029\033.\2029\033.\2029\033.\2029(\026a;\033.\2029\033.\2029\033.\2029vZ/;\033.\2029~\336\366:\033.\2029c$\205;P;,;\033.\2029\033.\2029\033.\2029\215,\354:k(\362:\034\007\341:\033.\2029\327\217\t;\033.\2029\033.\2029\027\017\204;\033.\2029\033.\2029<f\334:\033.\2029|\010\354:\033.\2029\033.\2029\033.\2029\033.\2029\037\250\256;\033.\2029\033.\2029\033.\2029\033.\2029\033.\2029\033.\2029\033.\2029\207\362\030;\033.\2029D\342\255;\024\263\276:\223\224.;\302\370\222;\304\336\';\223\224.;\000\3136;\033.\2029\033.\2029\033.\2029\033.\2029\033.\2029\033.\2029F\304B;\033.\2029\033.\2029\033.\2029\033.\2029\033.\2029\033.\2029\033.\2029\033.\2029\033.\2029\033.\2029\033.\2029\033.\2029\033.\2029\033.\2029;J\007;\033.\2029\033.\2029\033.\2029+\265\362:\033.\2029\033.\2029\033.\20293zz;\033.\2029\033.\2029\033.\2029\033.\2029\033.\2029\033.\2029}\223\202;\002\350\t;\033.\2029\033.\2029\033.\2029\327\217\t;\033.\2029\2322$;\033.\2029\033.\2029\033.\2029\033.\2029\033.\2029\366\022\000;\033.\2029\033.\2029\033.\2029\033.\2029\033.\2029\033.\2029\033.\2029\033.\2029\033.\2029\033.\2029\033.\2029\033.\2029\033.\2029\033.\2029\033.\2029\033.\2029\033.\2029\033.\2029\033.\2029\033.\2029\033.\2029?\300\341:[\362\323:\033.\2029\033.\2029\033.\2029\033.\2029\033.\2029\025H\025;\033.\2029\033.\2029\033.\2029\033.\2029\033.\2029\324\004_;\201\333\003;\033.\2029\324\004_;\033.\2029\033.\2029\033.\2029\033.\2029\033.\2029\033.\2029\033.\2029\236\303\r;\033.\2029\033.\2029\033.\2029\033.\2029\033.\2029\033.\2029\033.\2029\033.\2029\033.\2029\033.\2029\033.\2029\033.\2029\033.\2029\033.\2029\033.\2029\033.\2029\033.\2029\033.\2029\033.\2029\033.\2029y\356\020;\033.\2029\033.\2029\033.\2029\033.\2029\033.\2029\033.\2029\033.\2029\033.\2029\033.\2029\033.\2029\033.\2029\033.\2029\033.\2029\033.\2029\327\216\211;\033.\2029\343\206\321:\033.\2029\033.\2029\033.\2029\366\022\000;\033.\2029\033.\2029\033.\2029\033.\2029\033.\2029\033.\2029\033.\2029\313\2115;\033.\2029\305\211\t;\033.\2029\033.\2029\033.\2029\033.\2029\033.\2029\033.\2029\033.\2029\033.\2029\033.\2029\033.\2029\033.\2029\033.\2029\033.\2029\214\"3;\214\"3;\033.\2029\033.\2029\327\217\t;-\037\356:\033.\2029\033.\2029\033.\2029\033.\2029\023<\223;\033.\2029\033.\2029\033.\2029\033.\2029\033.\2029\033.\2029\033.\2029\033.\2029\033.\2029\033.\2029\033.\2029~\336\366:\033.\2029\033.\2029\365g\346:\033.\2029\203\2755;<f\334:\033.\2029\033.\2029\033.\2029\033.\2029\033.\2029\033.\2029\033.\2029\033.\2029\033.\2029\025Zu;>\022\214;\003q\265;\033\256\026;\302\267\207;\367Q\014;\0374\001;\355\241\362:\0374\001;v\351\224;{\"r;fJ*<A\177\231;\3677\035;\033.\2029\306\017\032;\033.\2029\033.\2029\033.\2029\227(\035;\033.\2029\033.\2029\033.\2029\033.\2029\313\2115;\033.\2029\271k\004;\033.\2029\033.\2029\033.\2029$\331\200;\033.\2029\366\022\000;\033.\2029\033.\2029\033.\2029\352\376);\033.\2029{\332<;\033.\2029\327\217\t;v\250\346:\274\025\214;\033.\2029\033.\2029\033.\2029\033.\2029\302\267\207;\025\236\370:RXh;\234\371\361:\271k\004;\033.\2029\033.\20291Z\322:zH\017;\2368\024;\033.\2029\033.\2029\033.\2029\033.\2029\033.\2029\033.\2029\033.\2029\033.\2029\033.\2029\033.\2029\033.\2029\033.\2029\033.\2029\033.\2029\033.\2029\033.\2029\033.\2029\033.\2029P;,;\033.\2029\033.\2029\033.\2029\033.\2029\033.\2029\033.\2029\033.\2029\033.\2029\033.\2029\033.\2029\033.\2029\033.\2029\033.\2029\227(\035;\002\350\t;\033.\2029\033.\2029\033.\2029\033.\2029\033.\2029\033.\2029\033.\2029\033.\2029\264m\346;\033.\2029\245w$;\323/\027;cU\003;\033.\2029\033.\2029\227(\035;\033.\2029\033.\2029\033.\2029\033.\2029\033.\2029\033.\2029\033.\2029\033.\2029\033.\2029\033.\2029\033.\2029\033.\2029\323/\027;\033.\2029\033.\2029\033.\2029>\214/;\033.\2029\033.\2029\005/*;\033.\2029\005/*;\033.\2029\033.\2029\033.\2029\033.\2029\033.\2029\033.\2029\033.\2029\033.\2029\033.\2029\033.\2029\033.\2029\033.\2029\033.\2029\033.\2029\033.\2029\033.\2029\033.\2029\033.\2029\033.\2029\033.\2029\033.\2029\033.\2029\033.\2029\033.\2029\033.\2029\033.\2029P;,;\033.\2029\033.\2029\033.\2029\033.\2029\033.\2029\033.\2029\033.\2029\033.\2029\033.\2029\033.\2029\033.\2029\033.\2029\033.\2029\033.\2029\034\020\325;\033.\2029\033.\2029\033.\2029\033.\2029\033.\2029\033.\2029\033.\2029\033.\2029\033.\2029\033.\2029\033.\2029\033.\2029\033.\2029\033.\2029\033.\2029\364\321\206;\033.\2029\033.\2029\033.\2029\033.\2029\033.\2029\033.\2029\033.\2029\033.\2029\033.\2029\033.\2029\033.\2029\033.\2029\033.\2029\033.\2029\033.\2029?B\005;[\232\2639[\232\2639\r\352\242:\325\360\303:\342\260n;[\232\2639\352p2;\032`\027;[\232\2639[\232\2639}\037\265:[\232\2639[\232\2639[\232\2639[\232\2639Jf\213:[\232\2639[\232\2639\001\332\346:\355\001[;[\232\2639[\232\2639[\232\2639p(\013;[\232\2639[\232\2639\014\r2;\211\217\355:[\232\2639[\232\2639l\223k;[\232\2639[\232\2639[\232\26399a\027;Y\004\346:[\232\2639[\232\2639w\010\277:[\232\2639\306\347C;[\232\2639\215\t-;x\322\231:[\232\2639\326\220\004;[\232\2639[\232\2639[\232\2639\345\302@;I\013<;\277\2554;[\232\2639\353\3139;\302\237b;\t\242\341:\331\311\235;[\232\2639[\232\2639[\232\2639[\232\2639\270|\335:\324\253\026;[\232\2639[\232\2639[\232\2639[\232\2639S\264\t;Vg];W\220\365:[\232\2639[\232\2639\320C6;[\232\2639\213\027\027;[\232\2639[\232\2639[\232\2639[\232\2639t\022s;\313\371\035;[\232\2639KzE;[\232\2639X\375\316:\342\2331;\024\354\216:\334\255-;[\232\2639\027\206n;[\232\2639\376\306=;[\232\2639[\232\2639\371\271Y;[\232\2639[\232\2639\005T\004;\325\030V;-\302\002;`\360\235:+\232=;\255(\002;\345\343\\;\022\336\221;[\232\2639AQ\017;[\232\2639[\232\2639[\232\2639V5+;\235Y\r;\306\216];N+\343;[\232\2639[\232\2639\225e\030;E\313\234;\267\203c;[\232\2639[\232\2639[\232\2639[\232\2639[\232\2639[\232\2639[\232\2639[\232\2639[\232\2639[\232\2639\345\242\304;[\232\2639[\232\2639\"\r\013;[\232\2639\352\345\375:[\232\2639\021\363I;[\232\2639[\232\2639[\232\2639[\232\2639[\232\2639[\232\2639[\232\2639[\232\2639[\232\2639[\232\2639[\232\2639[\232\2639\274E\004;[\232\2639[\232\2639\221vW;[\232\2639[\232\2639[\232\2639\236\377X;\325\030V;[\232\2639[\232\2639h3\205;BL\224;\201#.;[\232\2639\334\255-;[\232\2639miY;[\232\2639[\232\2639[\232\2639[\232\2639[\232\2639[\232\2639\002\016\342:\004qw;\270\3076;[\232\2639[\232\2639[\232\2639a>\241;\316\037p;[\232\2639[\232\2639?\024\360:j\307\325:[\232\2639\212\2305;[\232\2639[\232\2639[\232\2639[\232\2639$h\013;[\232\2639[\232\2639[\232\2639[\232\2639[\232\2639[\232\2639[\232\2639[\232\2639FA^;[\232\2639\247\340\345:[\232\2639[\232\2639[\232\2639[\232\2639[\232\2639[\232\2639[\232\2639[\232\2639[\232\2639[\232\2639[\232\2639[\232\2639\265\257\357:\246n\312;>\3030;[\232\2639[\232\2639[\232\2639[\232\2639[\232\2639[\232\2639[\232\2639[\232\2639[\232\2639[\232\2639\236\271\200;[\232\2639Y1Z;[\232\2639[\232\2639[\232\2639[\232\2639;\025/;[\232\2639[\232\2639[\232\2639[\232\2639[\232\2639=$\312;[\232\2639[\232\2639\325\030V;[\232\2639\367?@;[\232\2639[\232\2639[\232\2639[\232\2639[\232\2639[\232\2639\004;\024;[\232\2639\243]\273;[\232\2639[\232\2639\345\343\\;[\232\2639[\232\2639[\232\2639Y1Z;[\232\2639KA\036;\242>\352:[\232\2639[\232\2639[\232\2639\274=\316:[\232\2639\033\347\332:[\232\2639[\232\2639\023\2071;[\232\2639[\232\2639Lv\001;[\232\2639[\232\2639[\232\2639[\232\2639[\232\2639Y\220<;[\232\2639[\232\2639[\232\2639[\232\2639[\232\2639[\232\2639[\232\2639\355\342|;[\232\2639[\232\2639[\232\2639[\232\2639[\232\2639[\232\2639[\232\2639[\232\2639[\232\2639\000a\241;[\232\2639[\232\2639[\232\2639[\232\2639\326,8;[\232\2639[\232\2639\227\'\240;[\232\2639[\232\2639[\232\2639[\232\2639[\232\2639[\232\2639\257\202&;[\232\2639[\232\2639[\232\2639[\232\2639SZ#;\261*\266;[\232\2639[\232\2639[\232\2639\030\334>;[\232\2639[\232\2639[\232\2639\272\2569;[\232\2639[\232\2639\222MI;\323\2274;[\232\2639[\232\2639[\232\2639}_4;[\232\2639[\232\2639[\232\2639[\232\2639\345{\372:\274=\316:[\232\2639[\232\2639[\232\2639[\232\2639[\232\2639[\232\2639[\232\2639[\232\2639[\232\2639Y1Z;[\232\2639KzE;[\232\2639[\232\2639[\232\2639[\232\2639[\232\2639[\232\2639[\232\2639[\232\2639[\232\2639[\232\2639[\232\2639[\232\2639[\232\2639[\232\2639/\254*;[\232\2639\341?\344:[\232\2639KzE;[\232\2639[\232\2639[\232\2639[\232\2639[\232\2639\325\030V;\037\2074;[\232\2639[\232\2639\365\035#;[\232\2639\337\204S;*\031\217;[\232\2639[\232\2639[\232\2639[\232\2639\250\3340;`\2630;\217*\267;[\232\2639[\232\2639[\232\2639\033\367\r;[\232\26391j\261;[\232\2639[\232\2639[\232\2639Y1Z;\337,T;\016r(;[\232\2639[\232\2639[\232\2639[\232\2639[\232\2639[\232\2639[\232\2639[\232\2639F\201K;[\232\2639[\232\2639[\232\2639[\232\2639A\004\247;[\232\2639[\232\2639[\232\2639[\232\2639[\232\2639[\232\2639[\232\2639\354\343h;[\232\2639[\232\2639[\232\2639\354\343h;[\232\2639[\232\2639[\232\2639\314\003a;[\232\2639[\232\2639[\232\2639[\232\2639[\232\2639\275\303\';[\232\2639[\232\2639[\232\2639[\232\2639[\232\2639[\232\2639[\232\2639\334\255-;\265\257\357:[\232\2639[\232\2639[\232\2639[\232\2639[\232\2639[\232\2639[\232\2639\263\252\036;[\232\2639[\232\2639[\232\2639[\232\2639T\375\024;[\232\2639[\232\2639\237\256\260;[\232\2639[\232\2639[\232\2639[\232\2639[\232\2639[\232\2639[\232\2639V5+;[\232\2639[\232\2639[\232\2639\367?@;[\232\2639[\232\2639*WA;[\232\2639[\232\2639[\232\2639[\232\2639[\232\2639[\232\2639[\232\2639[\232\2639[\232\2639[\232\2639\027\265?;[\232\2639[\232\2639[\232\2639[\232\2639[\232\2639\354\312\036;[\232\2639[\232\2639[\232\2639[\232\2639[\232\2639[\232\2639\337\204S;[\232\2639[\232\2639\334\204);[\232\2639[\232\2639[\232\2639[\232\2639[\232\2639[\232\2639\255\272D;[\232\2639[\232\2639\365\035#;[\232\2639[\232\2639[\232\2639T\254};[\232\2639[\232\2639\0017\033;$h\013;[\232\2639[\232\2639#hU;[\232\2639[\232\2639[\232\2639[\232\2639[\232\2639[\232\2639[\232\2639[\232\2639[\232\2639[\232\2639[\232\2639[\232\2639[\232\2639[\232\2639[\232\2639[\232\2639[\232\2639[\232\2639[\232\2639[\232\2639i<Y;[\232\2639\255\272D;[\232\2639[\232\2639*\222\016;[\232\2639[\232\2639[\232\2639\365\035#;[\232\2639[\232\2639[\232\2639*\222\016;\352d\211;[\232\2639[\232\2639[\232\2639[\232\2639[\232\2639[\232\2639[\232\2639[\232\2639[\232\2639%\r5;[\232\2639[\232\2639\224\201p;\344\373x;@\244\207;[\232\2639[\232\2639j\201\201;[\232\2639[\232\2639[\232\2639[\232\2639[\232\2639[\232\2639\t\0264;s\366\207;[\232\2639\245bJ;[\232\2639[\232\2639=\"\345;[\232\2639[\232\2639[\232\2639#hU;[\232\2639[\232\2639[\232\2639\302\304\270;j\201\201;\221)i;\224\201p;\203w\320;\027\265?;[\232\2639[\232\2639[\232\2639[\232\2639[\232\2639[\232\2639[\232\2639[\232\2639[\232\2639[\232\2639[\232\2639[\232\2639M=$;[\232\2639[\232\2639Y1Z;j\330\";\272\324\\;[\232\2639[\232\2639[\232\2639[\232\2639\365\035#;\334\255-;\354\312\036;\3642\002<\330%\251;\'W\261;[\232\2639[\232\2639[\232\2639M=$;\315\220<;[\232\2639[\232\2639[\232\2639[\232\2639[\232\2639[\232\2639[\232\2639\334\255-;E\352\354:\265 G;\334\255-;[\232\2639[\232\2639[\232\2639[\232\2639[\232\2639[\232\2639[\232\2639[\232\2639[\232\2639[\232\2639[\232\2639[\232\2639[\232\2639[\232\2639[\232\2639[\232\2639[\232\2639[\232\2639[\232\2639[\232\2639[\232\2639[\232\2639[\232\2639[\232\2639[\232\2639[\232\2639[\232\2639[\232\2639[\232\2639[\232\2639[\232\2639[\232\2639[\232\2639[\232\2639[\232\2639[\232\2639[\232\2639[\232\2639[\232\2639[\232\2639[\232\2639[\232\2639[\232\2639[\232\2639[\232\2639\005\0064;[\232\2639[\232\2639[\232\2639[\232\2639[\232\2639[\232\2639[\232\2639[\232\2639[\232\2639[\232\2639[\232\2639[\232\2639[\232\2639[\232\2639[\232\2639[\232\2639[\232\2639[\232\2639[\232\2639[\232\2639[\232\2639\021\363I;[\232\2639[\232\2639[\232\2639[\232\2639[\232\2639\367?@;[\232\2639[\232\2639[\232\2639[\232\2639[\232\2639[\232\2639[\232\2639[\232\2639[\232\2639[\232\2639[\232\2639[\232\2639[\232\2639[\232\2639[\232\2639[\232\2639[\232\2639[\232\2639[\232\2639[\232\2639\354\343h;[\232\2639[\232\2639[\232\2639[\232\2639[\232\2639[\232\2639[\232\2639[\232\2639[\232\2639[\232\2639[\232\2639[\232\2639[\232\2639[\232\2639\246\227-;[\232\2639[\232\2639[\232\2639[\232\2639[\232\2639[\232\2639\272\324\\;[\232\2639[\232\2639[\232\2639[\232\2639[\232\2639[\232\2639[\232\2639[\232\2639[\232\2639[\232\2639[\232\2639[\232\2639[\232\2639[\232\2639[\232\2639[\232\2639[\232\2639[\232\2639[\232\2639[\232\2639[\232\2639\1774r;[\232\2639[\232\2639[\232\2639[\232\2639[\232\2639[\232\2639[\232\2639[\232\2639[\232\2639[\232\2639[\232\2639[\232\2639[\232\2639[\232\2639[\232\2639[\232\2639[\232\2639[\232\2639[\232\2639%\r5;[\232\2639[\232\2639[\232\2639[\232\2639[\232\2639[\232\2639\314\003a;[\232\2639[\232\2639[\232\2639[\232\2639[\232\2639[\232\2639[\232\2639[\232\2639[\232\2639\325\030V;[\232\2639[\232\2639[\232\2639Og\r<[\232\2639[\232\2639[\232\2639[\232\2639[\232\2639[\232\2639\363B&;[\232\2639[\232\2639[\232\2639\305\371N;\037\300\303;[\232\2639[\232\2639[\232\2639[\232\2639\273p\020;[\232\2639[\232\2639[\232\2639[\232\2639[\232\2639[\232\2639[\232\2639[\232\2639[\232\2639[\232\2639[\232\2639[\232\2639[\232\2639[\232\2639[\232\2639\240G\300;[\232\2639[\232\2639[\232\2639[\232\2639[\232\2639[\232\2639[\232\2639[\232\2639[\232\2639[\232\2639[\232\2639[\232\2639[\232\2639[\232\2639[\232\2639K\214];[\232\2639[\232\2639[\232\2639\222MI;[\232\2639[\232\2639[\232\2639[\232\2639[\232\2639[\232\2639[\232\2639[\232\2639[\232\2639[\232\2639[\232\2639[\232\2639[\232\2639[\232\2639[\232\2639[\232\2639[\232\2639[\232\2639[\232\2639[\232\2639#hU;[\232\2639K\214];[\232\2639[\232\2639\247\234e;[\232\2639[\232\2639[\232\2639[\232\2639[\232\2639\343[p;[\232\2639[\232\2639[\232\2639[\232\2639[\232\2639[\232\2639[\232\2639[\232\2639[\232\2639[\232\2639[\232\2639[\232\2639[\232\2639[\232\2639\247\234e;[\232\2639\247\234e;[\232\2639[\232\2639[\232\2639[\232\2639[\232\2639[\232\2639[\232\2639[\232\2639[\232\2639[\232\2639[\232\2639[\232\2639[\232\2639u\010\246;[\232\2639[\232\2639\021\363I;\325\030V;U\333D;\201#.;[\232\2639[\232\2639\354\343h;\305\016\341;[\232\2639[\232\2639[\232\2639[\232\2639[\232\2639[\232\2639\336\312N;[\232\2639[\232\2639\343[p;[\232\2639[\232\2639[\232\2639[\232\2639[\232\2639[\232\2639[\232\2639[\232\2639[\232\2639[\232\2639[\232\2639[\232\2639[\232\2639[\232\2639[\232\2639[\232\2639[\232\2639\007\201\271;[\232\2639[\232\2639[\232\2639[\232\2639[\232\2639\334\204);[\232\2639[\232\2639F\201K;[\232\2639u\266\016;\224Q\2279\224Q\2279\364\2762;\261\243\242:F\202-;\224Q\2279\363\302\014;\252[\203;\224Q\2279\224Q\2279y\376\256:\276\2672;\224Q\2279\224Q\2279-\357\261;M\014\225:F\037\370:\224Q\2279A0\354:\330\265b;\224Q\2279\224Q\2279\224Q\2279\332\246\206;\224Q\2279\224Q\2279\224Q\2279\272\227\310:\315F\264:\224Q\2279\275\207\020;\224Q\2279\224Q\2279\224Q\2279\335;\217:\346\3253;\224Q\2279\224Q\2279\3741\350:\257\263\016;C1b;\316\225\244:\224Q\2279\201\223\263:\224Q\2279#b\242;\224Q\2279\224Q\2279I\233\370:\253H\276:\224Q\2279\324\221\206;\224Q\2279\342>\224;\326\300-;\241]/;\177\267R;\224Q\2279\224Q\2279\224Q\2279U\302\027;A\232\250:\224Q\2279\224Q\2279\224Q\2279]\010#;\224Q\2279\224Q\2279\263\037\312:\224Q\2279\224Q\2279\224Q\2279\200\004\314:\200O\014;#z\260:\224Q\2279\224Q\22799k5;\304%K;\246\006,;\224Q\2279\224Q\2279\224Q\2279\224Q\2279X\213&;I\336\003;\364\351#;\224Q\2279\224Q\2279R\273\336;-\315\253:\365l\027;\324f\323:\2060\356:\351U]:\224Q\2279\224Q\2279\365)\331:g\307\037;\314f\247;@2\211;\224Q\2279\372\365\355:\224Q\2279\367p\252:\224Q\2279\224Q\2279\224Q\2279z\257\030;{\250R;\224Q\2279\224Q\2279\377nv;\342\027a:\373;);\224Q\2279\224Q\2279=\370\215:\224Q\2279\224Q\2279\224Q\2279\224Q\2279\224Q\2279\224Q\2279\224Q\2279`K\010;\233\332\345:\224Q\2279\224Q\2279\224Q\2279\224Q\2279\224Q\2279\224Q\2279]T ;\345\242K;\224Q\2279\224Q\2279}+\001;\224Q\2279\271\231<;\335\223\246;\224Q\2279\224Q\2279\224Q\2279\224Q\2279\241\377G;KE\237;\367\360f;\224Q\2279\264\237x;/KF;\351\244\215;\026t7;\224Q\2279K\026\027;\003\3505;\302\240U;\224Q\2279[!\032;\224Q\2279\265h\r<\263\261-;\224Q\2279\"\017\325:\224Q\2279\224Q\2279\366$K;\224Q\2279\224Q\2279\224Q\2279\224Q\2279\224Q\2279|;Q;\224Q\2279^b\217;\224Q\2279\001\'\332:\224Q\2279\224Q\2279\031\034\201;\234Wq;\224Q\2279\357f\237;M\252\330:\224Q\2279x\235S;k}\221;\034\303T;\224Q\2279\224Q\2279e\t\371:*\231\315:\224Q\2279\224Q\2279-\032\210;\224Q\2279\364\032\r;oz\032;g\307\037;\224Q\2279\224Q\2279\224Q\22791W\273:\224Q\2279\224Q\2279\224Q\2279\224Q\2279\224Q\2279\224Q\2279\224Q\2279\224Q\2279\224Q\2279\224Q\2279\224Q\2279]T ;\224Q\2279\200\207\344;\277:\360:\'\311\t;\224Q\2279\224Q\2279\224Q\2279\224Q\2279\224Q\2279\224Q\2279\216\226\327:\224Q\2279\224Q\2279\006\362\277:\270\031\376:\224Q\2279\224Q\2279\224Q\2279\224Q\2279\224Q\2279\031n\314;\224Q\2279\224Q\2279\224Q\2279\224Q\2279\234\347X;\0033\305;\221\346$;\224Q\2279\224Q\2279\224Q\2279\224Q\2279!\270\323:\224Q\2279\224Q\2279\224Q\2279\224Q\2279\224Q\2279\224Q\2279\310r\374:\224Q\2279\224Q\2279\224Q\2279\224Q\2279\224Q\2279\330?\311:\224Q\2279\224Q\2279\016d5;@\310l;kA\361:\224Q\2279\224Q\2279\224Q\2279\227\345J;\033h\202;}\272\000;\224Q\2279.\263\005;\224Q\2279\224Q\2279\224Q\2279\224Q\2279\224Q\2279\224Q\2279\224Q\2279\224Q\2279\375H\023;\224Q\2279\224Q\2279\353\010\033;\224Q\2279\224Q\2279\224Q\2279\021\305\335:\224Q\2279\224Q\2279\224Q\2279o\200j;\347\327\333:\224Q\2279\224Q\2279\224Q\2279\223jQ;\224Q\2279\320S%;\224Q\2279\224Q\2279\224Q\2279\224Q\2279\224Q\2279\241\004\003;\224Q\2279\224Q\2279\224Q\2279\224Q\2279d\346\005;\224Q\2279\224Q\2279\224Q\2279\224Q\2279\224Q\2279\224Q\2279\224Q\2279U\302\027;.\263\005;\224Q\2279\224Q\2279\014J4;\224Q\2279\224Q\2279\224Q\2279\224Q\2279\224Q\2279\233\226\031;\224Q\2279@\266\010;\260e%;\224Q\2279\224Q\2279\355\036=;\224Q\2279\007\271_;\224Q\2279\224Q\2279\224Q\2279\224Q\2279\224Q\2279\224Q\2279\211\364\301:%sn;\224Q\2279\224Q\2279\224Q\2279\224Q\2279\224Q\2279\224Q\2279\224Q\2279\224Q\2279\224Q\2279\224Q\2279\224Q\2279\224Q\2279\224Q\2279\224Q\2279\224Q\2279\224Q\2279\224Q\2279\224Q\2279kA\361:\224Q\2279\224Q\2279\'y\226;\224Q\2279\224Q\2279I~\002;\2107\033;\024\370\023;\246\013\007;\224Q\2279\224Q\2279\224Q\2279\224Q\2279\352\033\207;\224Q\2279\224Q\2279\224Q\2279\324f\323:\033@\n;\224Q\2279\224Q\2279\224Q\2279\224Q\2279\224Q\2279k\344\026;\224Q\2279\224Q\2279\224Q\2279\224Q\2279\224Q\2279\224Q\2279\224Q\2279\224Q\2279\224Q\2279\224Q\2279\224Q\2279q\ro;\224Q\2279\224Q\2279\224Q\2279\224Q\2279\224Q\2279\224Q\2279\263^g;\356\3160;\026\261e;\224Q\2279\224Q\2279\273\006\304;\216j@;\247\334%;\224Q\2279\224Q\2279\224Q\2279\224Q\2279\224Q\2279\224Q\2279\224Q\2279\224Q\2279\332\320#;\224Q\2279\224Q\2279F\037\370:\224Q\2279\224Q\2279\224Q\2279\224Q\2279\224Q\2279\224Q\2279\224Q\2279]T ;\224Q\2279\224Q\2279\224Q\2279\224Q\2279S+\351:\224Q\2279\224Q\2279\224Q\2279\224Q\2279sO/;\326\362>;\224Q\2279\224Q\2279\224Q\2279\224Q\2279\224Q\2279\224Q\2279\352\033\207;\276\2672;\212\224^;\224Q\2279\271E\221;\224Q\2279\224Q\2279\365\230\376:\224Q\2279\224Q\2279\003\317\013;\224Q\22796\315\313:\224Q\2279\242\263\004;\224Q\2279\224Q\2279\224Q\2279\224Q\2279\224Q\2279\007\021\271:\224Q\2279B\254\241;\224Q\2279\224Q\2279\224Q\2279\224Q\2279Q\227\211;\224Q\2279\224Q\2279Xm\236;\224Q\2279\224Q\2279\224Q\2279\224Q\2279\224Q\2279\003\3505;\224Q\2279\224Q\2279\224Q\2279\224Q\2279\224Q\2279\224Q\2279\224Q\2279\224Q\2279\224Q\2279\224Q\2279\260]\027;\253\262\206;\224Q\2279J\314\017;\224Q\2279\224Q\2279\224Q\2279\224Q\2279\224Q\2279\224Q\2279\224Q\2279\224Q\2279\224Q\2279\313\353\212;\224Q\2279\224Q\2279\224Q\2279\224Q\2279\224Q\2279\2107\033;\224Q\2279\224Q\2279\224Q\2279\224Q\2279\224Q\2279\224Q\2279\224Q\2279\224Q\2279*\231\315:\224Q\2279\224Q\2279\224Q\2279\224Q\2279\224Q\2279\224Q\2279\245h\002;\224Q\2279\224Q\2279\224Q\2279\256\222:;\224Q\2279\224Q\2279\224Q\2279\224Q\2279\224Q\2279\224Q\2279\224Q\2279\224Q\2279\224Q\2279\224Q\2279\224Q\2279\224Q\2279\224Q\2279\224Q\2279\224Q\2279\224Q\2279\224Q\2279\224Q\2279\224Q\2279/\021O;\224Q\2279\224Q\2279\271V\017;\224Q\2279\224Q\2279\224Q\2279\224Q\2279X\255\234;\224Q\2279\224Q\2279\224Q\2279\224Q\2279\224Q\2279\271\231<;\224Q\2279\224Q\2279\224Q\2279\224Q\2279\224Q\2279\224Q\2279\224Q\2279\224Q\2279\224Q\2279\224Q\2279\224Q\2279\224Q\2279\224Q\2279\224Q\2279\224Q\2279\224Q\2279\260e%;\224Q\2279\224Q\2279\355\036=;s\233\007;\224Q\2279\224Q\2279\224Q\2279\000\365|;\367r\271;\224Q\2279\224Q\2279\224Q\2279\224Q\2279\224Q\2279\224Q\2279\224Q\2279\224Q\2279\224Q\2279\224Q\2279\224Q\2279\224Q\2279\224Q\2279E\315\353:\224Q\2279\224Q\2279\224Q\2279\224Q\2279\224Q\2279\224Q\2279\224Q\2279\224Q\2279\224Q\2279\224Q\2279\224Q\2279\224Q\2279\224Q\2279\224Q\2279\224Q\2279\224Q\2279\224Q\2279\224Q\2279\224Q\2279\224Q\2279\224Q\2279\224Q\2279\224Q\2279\224Q\2279\224Q\2279\224Q\2279\224Q\2279\224Q\2279\357\007\353:\224Q\2279\224Q\2279U\302\027;\224Q\2279\224Q\2279\014J4;\224Q\2279\224Q\2279\224Q\2279\224Q\2279\224Q\2279\224Q\2279\224Q\2279&\030\317;\224Q\2279\224Q\2279\224Q\2279\016d5;u\327\321;`K\010;\016d5;\224Q\2279\224Q\2279\260\203B;\224Q\2279\365\356\253;\224Q\2279\224Q\2279\224Q\2279\224Q\2279\224Q\2279\016d5;\210\354\034;\224Q\2279\224Q\2279\224Q\2279\224Q\2279\224Q\2279\016d5;\224Q\2279\276\2672;\260\203B;\223jQ;\223jQ;oWI;\260\203B;\224Q\2279\224Q\2279mbE;\224Q\2279\224Q\22799\243,;\224Q\2279\336\323%;\224Q\2279\224Q\2279\224Q\2279\224Q\2279\224Q\2279\224Q\2279\224Q\2279\224Q\2279\224Q\2279\224Q\2279\224Q\2279\224Q\2279\224Q\2279 \366\253;\224Q\2279\224Q\2279\224Q\2279d?\021;\224Q\2279\260e%;\224Q\2279\243\252|;\224Q\2279\224Q\2279\224Q\2279\224Q\2279\224Q\2279\224Q\2279\224Q\2279\224Q\2279!\225<;\224Q\2279\224Q\2279\224Q\22797\330\002;\224Q\2279Qz\223;\224Q\2279U\302\027;W\202*;\224Q\2279\224Q\2279\224Q\2279\224Q\2279\224Q\2279\224Q\2279\224Q\2279\224Q\2279\224Q\2279mA%;\227T,;\224Q\2279\224Q\2279\003\3505;\224Q\2279\224Q\2279\213\233\215;\224Q\2279\224Q\2279\224Q\2279Z\261!;\224Q\2279\224Q\2279\224Q\2279U\302\027;\271V\017;\224Q\2279\224Q\2279\224Q\2279\224Q\2279\224Q\2279\224Q\2279\224Q\2279\224Q\2279\224Q\2279mA%;\224Q\2279\224Q\2279\224Q\2279\224Q\2279\224Q\2279\224Q\2279\224Q\2279\224Q\2279\224Q\2279\224Q\2279\224Q\2279\007\020\303;\224Q\2279\210\354\034;\224Q\2279\224Q\2279\224Q\2279\224Q\2279\224Q\2279\224Q\2279\224Q\2279\224Q\2279\224Q\2279\224Q\2279\224Q\2279\224Q\2279\224Q\2279\224Q\2279\224Q\2279\224Q\2279\224Q\2279\224Q\2279\224Q\2279\224Q\2279\336\323%;\t,\227;\224Q\2279\224Q\2279\224Q\2279\224Q\2279\224Q\2279]\010#;\224Q\2279\2631\000<\224Q\2279\234\347X;\224Q\2279g\307\037;\224Q\2279\224Q\2279\224Q\2279\224Q\2279\224Q\2279\033h\202;\241\004\003;\224Q\2279\224Q\2279\224Q\2279\007{u;\210\354\034;\344\323\211;\224Q\2279\224Q\2279\224Q\2279\224Q\2279\325<i;\352\033\207;\224Q\2279\224Q\2279\224Q\2279\252\331\026;\224Q\2279\177o\326;\224Q\2279\224Q\2279\224Q\2279\224Q\2279\224Q\2279\224Q\2279\224Q\2279\224Q\2279\224Q\2279\355\036=;\224Q\2279\224Q\2279\224Q\2279\224Q\2279\224Q\2279\224Q\2279\224Q\2279\224Q\2279\224Q\2279\224Q\2279\224Q\2279\224Q\2279\224Q\2279\224Q\2279\224Q\2279\"\'\007;\224Q\2279\324\251\263;\224Q\2279\356\3160;\224Q\2279\224Q\2279\224Q\2279\224Q\2279\224Q\2279\224Q\2279\224Q\2279\224Q\2279\224Q\2279\224Q\2279\224Q\2279\224Q\2279\224Q\2279\233\371\037<\224Q\2279mA%;\210\354\034;\224Q\2279\224Q\2279\224Q\2279\224Q\2279\224Q\2279\224Q\2279k)G; .\243;\224Q\2279\224Q\2279\224Q\2279\224Q\2279\224Q\2279\224Q\2279U\302\027;\224Q\2279k)G;\224Q\2279\224Q\2279\224Q\2279\224Q\2279\224Q\2279]\010#;\224Q\2279\355\036=;\224Q\2279\224Q\2279\224Q\2279\224Q\2279\224Q\2279\224Q\2279\224Q\2279\224Q\2279\224Q\2279\224Q\2279\224Q\2279\224Q\2279^Y\246;\224Q\2279\224Q\2279\224Q\2279\224Q\2279\224Q\2279\224Q\2279\224Q\2279\224Q\2279\224Q\2279\224Q\2279\224Q\2279\224Q\2279\224Q\2279\224Q\2279\224Q\22790\2513;\224Q\2279\224Q\2279\224Q\2279\224Q\2279\224Q\2279\210\354\034;\224Q\2279\224Q\2279\224Q\2279\224Q\2279\224Q\2279\224Q\2279\224Q\2279\224Q\2279\224Q\2279\224Q\2279\224Q\2279\224Q\2279\224Q\2279\224Q\2279\224Q\2279\224Q\2279\224Q\2279\224Q\2279\224Q\2279\224Q\2279\224Q\2279\224Q\2279\224Q\2279\353\010\033;\224Q\2279\224Q\2279\224Q\2279\"\'\007;\353\010\033;\224Q\2279\224Q\2279\224Q\2279\224Q\2279\224Q\2279\224Q\2279\224Q\2279\224Q\2279\224Q\2279\224Q\2279\224Q\2279\224Q\2279\224Q\2279\224Q\2279\224Q\2279\224Q\2279\224Q\2279/6\030;\243O\2609\243O\26093\334T;\301\357\262:\255\365f;\243O\2609\026\324O;J\346);\243O\2609\243O\2609\016\331\255:\243O\2609\243O\2609\344\3145;\256R-;D\310\204:\243O\2609\243O\2609O\317\t;\243O\2609\243O\2609\243O\2609\243O\2609C\237g;\243O\2609\230\371\000;\311\003\006;S\t\242:\204\372\003;\243O\2609\355\311;;\243O\2609\243O\2609\243O\2609k4\250:\243O\2609\336\330K;\243O\2609d\3250;\243O\2609\257\320\013;\345\213\303;\243O\2609\376X\346:\243O\2609\267\t:;\243O\2609\305\260#;\243O\2609\243O\2609\243O\2609\027\221r;\243O\2609T\252\214:\220\331e;N\275\370:\230h\202;\243O\2609\243O\2609y\027H;\243O\2609\311\003\006;G\270/;\243O\2609\243O\2609\243O\2609\243O\2609H\256\';2\254\225;\243O\2609\361m\';\243O\2609\304\333q;\006T\034;+\326\316:\243O\2609\243O\2609\243O\2609\243O\26096\235\n;\243O\2609\3706N;\243O\2609\301M\246:\235\224\244;\357\324T;Vd\306;\243O\2609\243O\2609\207\267\314:\243O\2609\243O\2609\243O\2609w\005\031;oI\322:\243O\2609\243O\2609\232\337\220:\243O\2609p\322\014;\241B\034;\243O\2609\262\2354:\243O\2609X\356\343:\243O\2609\027\277\226:\243O\2609\005\006E;\327\004\362:\243O\2609\243O\2609\033\'8;\243\202E;\242\242\242;6\2123;\302\246\014;X\2230;\026I.;\243O\2609\243O\2609\243O\2609\367\215a;\243O\2609\243O\2609&\344A;\243O\2609\243O\2609\243O\2609\361m\';\243O\2609\243O\2609\243O\2609\243O\2609D\264N;\n\312U;In\332:\373\362\223;\243O\2609\213\007\200;\243O\2609\243O\2609~\203\\;Y\037\234;\256{\206;\364\305\223;\243O\2609\323|\n;\243O\2609\243O\2609\327[\270:\243O\2609%Z\244:\243O\2609\243O\2609\243O\2609\321\337O;\243O\2609\305h\244;\243O\2609>~\210;\303D\354:\243O\2609\037\202\017;\243O\2609\243O\2609_\025&;\243O\2609\243O\2609\243O\2609\346)\201;\243O\2609\243O\2609\243O\2609+\326\316:\243O\2609\364\037\010;\243O\2609S\0212;\243O\2609\243O\2609\243O\2609\243O\2609\303E\334:\243O\2609\243O\2609w\312t;NP\235:\243O\2609\243O\2609\243O\2609\243O\2609\243O\2609\243O\2609\243O\2609\243O\2609\243O\2609\243O\2609\243O\2609\243O\2609\336\246\225:\243O\2609\243O\2609\243O\2609\255}\272:\243O\2609\243O\2609\243O\2609\243O\2609\243O\2609\210\024\216;\243O\2609\243O\2609\243O\2609\243O\2609\257\370\236:\256\3037;\243O\2609\243O\2609\243O\2609\243O\2609\313|\276:\231\3226;\211\357N;\243O\2609\001\033\262;\243O\2609\243O\2609\373C\203;\243O\2609\243O\2609\243O\2609\217\305I;Gz\342:\243O\2609\243O\2609\243O\2609\243O\2609\243O\2609\243O\2609\243O\2609\243O\2609\360/b:\243O\2609\243O\2609\243O\2609\243O\2609\245T\024<\243O\2609\243O\2609\243O\2609\243O\2609\243O\2609\314\201\240;\243O\2609a`\251:\243O\2609\243O\2609\243O\2609\017\251w;\243O\2609\243O\2609\243O\2609\243O\2609\243O\2609\243O\2609\243O\2609\243O\2609\243O\2609\307\'\201;\260\250\306:\205@R;\243O\2609\243O\2609\030\226\223:\243O\2609\243O\2609\243O\2609\243O\2609\256o\303:\243O\2609\243O\2609\243O\2609\243O\2609\243O\2609\243O\2609\243O\2609\243O\2609\243O\2609\243O\2609\243O\2609$\223\274:\243O\2609\243O\2609J\337\000;\243O\2609\243O\2609\243O\2609\243O\2609\243O\2609mgb;\243O\2609\243O\2609\243O\2609\243O\2609\211\357N;\243O\2609\243O\2609\243O\2609j\353>;e{3;\243O\2609\243O\2609\243O\2609\301\372\024;\243O\2609\243O\2609\243O\2609\243O\2609\243O\2609\243O\2609\243O\2609&\016\263;\243O\2609\335e9;b\255\362;\243O\2609\243O\2609\243O\2609\243O\2609\243O\2609Q\025\023;\243O\2609\243O\2609\'\306\323;\243O\2609\243O\2609\243O\2609\243O\2609\243O\2609\3706N;\243O\2609\243O\2609E\221\211;\243O\2609\265\004R;\213\007\200;\243O\2609\243O\2609\243O\2609\243O\2609\243O\2609\243O\2609\243O\2609\243O\2609\243O\2609\243O\2609\243O\2609\243O\2609\243O\2609\243O\2609\243O\2609\243O\2609\023\330\001<\247\321\r;\243O\2609\274R/;\243O\2609\243O\2609\243O\2609M\242\346;\243O\2609O\004.;s\021c;\243O\2609\243O\2609\243O\2609\243O\2609\243O\2609\243O\2609\243O\2609\243O\2609\243O\2609\243O\2609\243O\2609\243O\2609\243O\2609\244*P;\243O\2609\243O\2609\243O\2609\243O\2609\243O\2609\246\3339;\243O\2609\243O\2609\243O\2609\243O\2609\243O\2609.\212>;\345mr;\243O\2609\243O\2609\004\n\232:\243O\2609\243O\2609\243O\26093\017\225:\243O\2609\243O\2609\2059K;g\320\';\243O\2609\243O\2609\243O\2609\243O\2609\243O\2609\243O\2609\305W\";\243O\2609\245\345\354:\243O\2609\243O\2609\243O\2609\243O\2609\274R/;\023`U;\243O\2609\336\330K;\243O\2609\243O\2609\243O\2609\243O\2609\243O\2609\243O\2609\243O\2609\243O\2609\243O\2609\243O\2609\243O\2609\243O\2609)\'\030<\243O\2609\243O\2609\243O\2609\243O\2609\243O\2609\243O\2609\243O\2609\243O\2609\243O\2609\243O\2609\243O\2609\243O\2609{M>;\243O\2609\243O\2609\243O\2609}\270\271:\243O\2609\243O\2609\243O\2609\243O\2609\243O\2609\243O\2609\304U\217:\243O\2609\243O\2609\243O\2609\243O\2609\243O\2609\215j\306;\243O\2609\010Q\244;\243O\2609\243O\2609\330\331\206;\243O\2609\243O\2609\243O\2609\243O\2609\243O\2609\243O\2609\243O\2609\243O\2609{M>;\243O\2609\243O\2609\243O\2609\243O\2609\243O\2609\243O\2609\243O\2609\243O\2609\275\216%;\243O\2609\243O\2609\243O\2609\243O\2609\243O\2609\243O\2609\243O\2609\243O\2609\243O\2609\243O\2609\243O\2609\243O\2609\243O\2609\243O\2609\270\320\210;\243O\2609\243O\2609\243O\2609\243O\2609\243O\2609\243O\2609\243O\2609\243O\2609\243O\2609\243O\2609\243O\2609\243O\2609\243O\2609\243O\2609\243O\2609\243O\2609\243O\2609\243O\2609\331\376);\243O\2609\243O\2609\243O\2609\243O\2609\243O\2609\243O\2609\243O\2609\243O\2609\243O\2609\243O\2609\243O\2609\243O\2609\243O\2609\243O\2609\243O\2609\243O\2609\243O\2609\243O\2609\243O\2609\243O\2609\243O\2609\243O\2609\243O\2609\243O\2609\243O\2609\243O\2609\243O\2609\237\013C;\243O\2609\243O\2609_\213\003;\243O\2609\243O\2609\243O\2609\243O\2609\243O\2609\243O\2609\243O\2609\243O\2609\243O\2609\243O\2609\243O\2609\243O\2609\243O\2609\243O\2609\243O\2609\243O\2609\243O\2609\243O\2609\243O\2609\243O\2609\243O\2609\243O\2609\243O\2609\243O\2609\243O\2609\243O\2609\243O\2609$\036\330:\243O\2609\243O\2609\243O\2609\243O\2609\270\304\210;\243O\2609\243O\2609\243O\2609\243O\2609\243O\2609\243O\2609\243O\2609\243O\2609\243O\2609\320\037V;\314U\202;\243O\2609\321\307\265;\243O\2609\243O\2609\243O\2609\243O\2609\243O\2609[\003\336;\243O\2609\243O\2609j-5;\243O\2609\243O\2609\243O\2609\243O\2609\243O\2609\243O\2609\243O\2609\243O\2609\243O\2609\243O\2609\243O\2609\243O\2609\334r\035;\243O\2609\243O\2609\243O\2609\023`U;\211\357N;\243O\2609\243O\2609\243O\2609\243O\2609\243O\2609\243O\2609\243O\2609\243O\2609\241\245\253;\243O\2609\243O\2609\243O\2609\243O\2609\243O\2609\243O\2609\243O\2609\243O\2609\243O\2609\243O\2609\243O\2609\243O\2609\243O\2609\243O\2609\243O\2609\243O\2609\243O\2609\243O\2609\243O\2609\243O\2609\232t\214;\243O\2609\243O\2609\243O\2609\243O\2609\243O\2609\243O\2609\243O\2609\243O\2609\243O\2609\243O\2609\023\371\352;\243O\2609\243O\2609\243O\2609\243O\2609\243O\2609\243O\2609\0038=;\243O\2609\243O\2609G\307\240;\243O\2609\243O\2609\243O\2609\243O\2609\243O\2609\243O\2609\243O\2609\243O\2609\243O\2609\243O\2609\243O\2609\243O\2609\243O\2609\243O\2609\243O\2609\243O\2609\234\234.;\243O\2609\243O\2609\243O\2609\243O\2609\243O\2609\243O\2609\243O\2609\243O\2609\243O\2609\243O\2609\243O\2609\243O\2609\243O\2609\243O\2609\243O\2609\243O\2609\243O\2609i\265H;\243O\2609\243O\2609\243O\2609\243O\2609\243O\2609\243O\2609\243O\2609\213\007\200;\243O\2609\243O\2609\243O\2609\243O\2609\243O\2609\243O\2609\243O\2609\243O\2609\243O\2609\243O\2609\243O\2609\243O\2609-\330];\243O\2609\243O\2609\243O\2609\243O\26093\265\306;\337\317*;\243O\2609\243O\2609-\272Q;\314U\202;\243O\2609\243O\2609\243O\2609\274R/;\243O\2609\243O\2609\316\235\207;*m\347:\243O\2609\243O\2609\243O\2609\243O\2609\243O\2609\243O\2609\243O\2609\243O\2609\243O\2609\243O\2609\243O\2609\326\032\313;\243O\2609\243O\2609\243O\2609\243O\2609\243O\2609\243O\2609\243O\2609\243O\2609\243O\2609\243O\2609\243O\2609O\004.;\243O\2609\243O\2609\243O\2609\243O\2609\243O\2609\243O\2609\243O\2609\243O\2609\243O\2609\243O\2609\243O\2609\243O\2609\243O\2609/?p<\243O\2609\243O\2609\243O\2609\243O\2609\243O\2609\243O\2609\243O\2609\243O\2609\243O\2609\243O\2609\243O\2609\243O\2609\243O\2609\243O\2609\243O\2609\243O\2609\243O\2609\243O\2609\243O\2609\243O\2609\243O\2609\243O\2609\243O\2609\243O\2609\243O\2609\243O\2609\243O\2609\243O\2609\327\214\314:\243O\2609\243O\2609\243O\2609\243O\2609\243O\2609\3016\306:\243O\2609\243O\2609\243O\2609\270\320\210;\243O\2609\243O\2609\243O\2609\243O\2609\243O\2609\243O\2609\243O\2609\243O\2609\243O\2609\243O\2609\243O\2609\243O\2609\243O\2609\243O\2609\243O\2609\243O\2609\243O\2609\243O\2609\243O\2609-\272Q;\243O\2609\243O\2609\004\247!<\243O\2609\243O\2609\327\215\304;\214\025=<\243O\2609R\0248;\2705h;H\321\326;\243O\2609\243O\2609\243O\2609\243O\2609\301\215\352;\243O\2609\243O\2609-\272Q;-\272Q;\253\357\307;\217\305I;\367\000t;g\240^;\037.m;\243O\2609\243O\2609\021\005\230;\243O\2609\204\023g;\223\233l;\243O\2609\243O\2609\243O\2609\243O\2609\243O\2609\270\320\210;\243O\2609\243O\2609\243O\2609\243O\2609\243O\2609\243O\2609\243O\2609\243O\2609\243O\2609\243O\2609\243O\2609\243O\2609\243O\2609\243O\2609\243O\2609\243O\2609\243O\2609\243O\2609\243O\2609\243O\2609\243O\2609\243O\2609\243O\2609\243O\2609\243O\2609?\364\326:\243O\2609\243O\2609\243O\2609\320\037V;\243O\2609\243O\2609\243O\2609\243O\2609\243O\2609\243O\2609\243O\2609\243O\2609\243O\2609\243O\2609\243O\2609\243O\2609\243O\2609\243O\2609\243O\2609\243O\2609\243O\2609\243O\2609\243O\2609\243O\2609\243O\2609\243O\2609\243O\2609\243O\2609\243O\2609\243O\2609\243O\2609\243O\2609r\217\314:\243O\2609\243O\2609\243O\2609\243O\2609\243O\2609\327\232\373:\243O\2609\262`u;\243O\2609\243O\2609\371\252\006<\243O\2609\243O\2609<\351k;\243O\2609\243O\2609\243O\2609\243O\2609\243O\2609\243O\2609\243O\2609\243O\2609\243O\2609\243O\2609\243O\2609\243O\2609\243O\2609\243O\2609\243O\2609\243O\2609\243O\2609\243O\2609\243O\2609\243O\2609\243O\2609\243O\2609\243O\2609\243O\2609^\200\013;\270[\352;\2306\273;V\370\022;V\370\022;\243O\2609\243O\2609\243O\2609\243O\2609\243O\2609\375\331#;\227&\2339\227&\2339\315S\224;\213\277\370:\320\005\216:\227&\2339F\317\\;/T\200;\227&\2339\227&\2339\353z\307:\227&\2339\227&\23391\246S;\031\235\236;\331J\240:\332\316\271;\227&\2339\232\207H;H\275<;\227&\2339\227&\2339\227&\2339\245\310\014;\227&\2339\227&\23397;s;oG\030;\227&\2339F  ;b\023(;\227&\2339\227&\2339\227&\2339\020g\207;\307J\316:\227&\2339\227&\2339\332P.;\227&\2339~\352\225;\227&\2339\227&\2339/8\347:\227&\2339\341?Z;\227&\2339\227&\2339a\0309;>\315\274:\227&\2339\300\346V;&t\025;\333\'A;\021\246\\;\322Il;\343o\212;\227&\2339\227&\2339\227&\2339\227&\2339\341\205\230;\227&\2339\017_`;\227&\2339\227&\2339\227&\2339\227&\2339X$Z;\227&\2339\227&\2339\227&\2339\314O\231;\227&\2339\332\260b;\227&\2339\227&\2339\227&\2339\227&\2339|: ;\227&\2339\227&\2339\227&\2339\227&\2339Q\035`;\t \200;<\321\212;\227&\2339\227&\2339\324\300\236;\227&\2339\013\251\362:yr\313;3\020\355:\223\302\007;\227&\2339\227&\2339\207Y\352:\227&\2339\022\331\333:\275\306\240;\227&\2339-6\200;\227&\2339\\U\225:\300TJ;\227&\2339\227&\2339\227&\2339\227&\2339\227&\2339G\n7;\020\036\\:\216V\241;\325-\240:\227&\2339\230\025q;\255|\245;\337\357\345:\227&\2339\227&\2339\227&\2339\227&\2339\020]:;X\257\034;4}\314:\227&\2339\23228;\227&\2339\227&\2339\227&\2339\227&\2339/Cd;\227&\2339\344C\n;o\206\241:\227&\2339\312EF;\227&\2339\227&\2339\370\005+;\227&\2339\227&\2339\227&\2339\325\367\272:\227&\2339\375\306\323:h7=;\227&\2339l\020H;\226\365(;\340\371\250;\336\252\217:\227&\2339\227&\2339\227&\2339\025=\201;\227&\2339zBa;\227&\2339\227&\2339\272I\214;\227&\2339\227&\2339\227&\2339\227&\2339\3127\243;\227&\2339\227&\2339\227&\2339\227&\2339\227&\2339p\231w;`\345\231:\226rw;\336a\032;F\371\213;\227&\2339\227&\2339\227&\2339%F\323:\227&\2339\242.\206;kz\324:sYu;\227&\2339Tt\345:\227&\2339\326vJ;z\222D;\231\373\253:\341)\317:\227&\2339\271\021+;\227&\2339\227&\2339\227&\2339\0358W;\227&\2339\227&\2339%\3206;\227&\2339\227&\2339\23228;\227&\2339\227&\2339\227&\2339\227&\2339\246\353x;\227&\2339\227&\2339F  ;\227&\2339\227&\2339\227&\2339\227&\2339\013\3779;X\367\n;\227&\2339\356\364\025;\227&\2339\261p[;\227&\2339\227&\2339\227&\2339w\325\325;\227&\2339\227&\2339\227&\2339\227&\2339\227&\2339\227&\2339\227&\2339\227&\2339\227&\2339\227&\2339\227&\2339\227&\2339\227&\2339\263\026\326:\227&\2339\334tz;\276\352C;\227&\2339\227&\2339\227&\2339\227&\2339\227&\2339\227&\2339\227&\2339\227&\2339\227&\2339\227&\2339\235(\346:\372\005\027;\227&\2339\227&\2339\227&\2339\227&\2339\227&\2339iB\247:\23228;\227&\2339\227&\2339\227&\2339\227&\2339\227&\2339\227&\2339\227&\2339\227&\2339\227&\2339\227&\2339\227&\2339\227&\2339\276L\304:\235\261\331:\227&\2339\337\357\345:\227&\2339\227&\2339\227&\2339\205\261(;Pen;\227&\2339\227&\2339\227&\2339\227&\2339\227&\2339\227&\2339\007\033\334:\227&\2339\227&\2339\227&\2339\227&\2339\227&\2339\227&\2339\377Z0;\227&\2339\227&\2339\227&\2339\227&\2339\372\005\027;\342\177*;\227&\2339\227&\2339\227&\2339\227&\2339\227&\2339\227&\2339\227&\2339\227&\2339\262\237\311:\227&\2339R\237*;S\277\366:\227&\2339%\257\014;\227&\2339\227&\2339\227&\2339\227&\2339\262\237\311:\231\373\253:\227&\2339\227&\2339\227&\2339\227&\2339\23228;\227&\2339\347g\266;\024|\224;\227&\2339\227&\2339\227&\2339\227&\2339\026\0177;\227&\2339\227&\2339\227&\2339\227&\2339\227&\2339\227&\2339\227&\2339\227&\2339\227&\2339\227&\2339\227&\2339\227&\2339_8\341;\227&\2339Zv\036;\001\210\013;\332\316\374:\227&\2339\227&\2339=u6;\227&\2339\227&\2339\227&\2339\227&\2339F  ;\227&\2339\227&\2339\227&\2339\227&\2339\227&\2339\227&\2339\020\023\344:\227&\2339\227&\2339%\257\014;\227&\2339\227&\2339d1(;\227&\2339\227&\2339\227&\2339\227&\2339\227&\2339\227&\2339\227&\2339\227&\2339\227&\2339\227&\2339\227&\2339\227&\2339\227&\2339\227&\2339\227&\2339\227&\2339\227&\2339\227&\2339\227&\2339\227&\2339\227&\2339\227&\2339\227&\2339bp\006;U6$;\227&\2339\227&\2339\227&\2339\274l\246;:\214\335:\227&\2339\332\316\374:\207:\366:\227&\2339\227&\2339\227&\2339\276\363<;\227&\2339\227&\2339\227&\2339\227&\2339\227&\2339z\222D;\227&\2339X\367\n;\227&\2339\227&\2339`\202\317:\227&\2339\227&\2339\227&\2339\227&\2339\227&\2339\227&\2339\263\026\326:\353\203\232;\227&\2339\227&\2339\227&\2339\227&\2339\227&\2339\227&\2339\227&\2339\227&\2339\227&\2339\227&\2339\227&\2339\227&\2339\227&\2339f\352t;\224\345q;\227&\2339|\2224;\227&\2339\227&\2339\227&\2339\262\237\311:\227&\2339\227&\2339\227&\2339\227&\2339\233U\360:\227&\2339\244\327\013;F<\";\227&\2339\274\277\035;\227&\2339\227&\2339F<\";\227&\2339T8\200;\227&\2339\227&\2339\227&\2339\227&\2339\004(\034;\227&\2339\227&\2339\227&\2339\227&\2339.\236\271;\227&\2339\227&\2339\n\031\032;\227&\2339\227&\2339\227&\2339p\232\223;\335\241\361:P_\241;\227&\2339\022Z\354;\227&\2339\227&\2339\227&\2339\227&\2339\227&\2339\227&\2339\367O|;\227&\2339\227&\2339\227&\2339\227&\2339\227&\2339\227&\2339\227&\2339\004(\034;\227&\2339\227&\2339\227&\2339\227&\2339&jL;\227&\2339\227&\2339\227&\2339\227&\2339\227&\2339\227&\2339\300\371!;\227&\2339\227&\2339\227&\2339\227&\2339\227&\2339\227&\2339\227&\2339\227&\2339\227&\2339\227&\2339\227&\2339\227&\2339\332\316\374:\227&\2339\227&\2339\227&\2339\254\310\020;\227&\2339\227&\2339\224\345q;(\345<;\227&\2339\227&\2339\227&\2339\227&\2339\227&\2339\227&\2339\221\346F;\t\370\036;\227&\2339bp\006;\227&\2339\227&\2339\227&\2339\227&\2339\227&\2339\227&\2339\227&\2339\227&\2339\227&\2339\227&\2339\377Z0;\314.@;\227&\2339\227&\2339-\304\345:`\243\243;\227&\2339\227&\2339\227&\2339\227&\2339\227&\2339\227&\2339\227&\2339\227&\2339\227&\2339\300\371!;\227&\2339\227&\2339\227&\2339\227&\2339\227&\2339\t\244a;\227&\2339U6$;\227&\2339\227&\2339\227&\2339\227&\2339\227&\2339t\241\204;\227&\2339\001\210\013;\227&\2339\227&\2339\227&\2339\227&\2339\227&\2339!\313\307;\227&\2339\227&\2339\227&\2339\227&\2339\227&\2339\227&\2339\344\337\340;\227&\2339\227&\2339\227&\2339\227&\2339\227&\2339\227&\2339\227&\2339\227&\2339\224\345q;\227&\2339\n\316\210;\227&\2339\227&\2339^IX;\211\004\033;\227&\2339\262\237\311:\227&\2339\001\210\013;\276\363<;1\"\002;\227&\2339\227&\2339r\374\371:\227&\2339\227&\2339\227&\2339\246\353x;\227&\2339\227&\2339\227&\2339=u6;\227&\2339\227&\2339\227&\2339\227&\2339\227&\2339\227&\2339\227&\2339\227&\2339\227&\2339\227&\2339&C\001;\227&\2339\227&\2339\227&\2339\227&\2339\227&\2339\227&\2339\227&\2339\227&\2339\227&\2339\227&\2339\227&\2339\227&\2339\227&\2339\312\346\016;\227&\2339\354,%;\227&\2339\227&\2339\227&\2339\310\252\024;\227&\2339\227&\2339\227&\2339\227&\2339\227&\2339\227&\2339\227&\2339K\352\024;\227&\2339\227&\2339\227&\2339\227&\2339\227&\2339\227&\2339\227&\2339\227&\2339\227&\2339\332\316\374:\227&\2339\227&\2339\227&\2339\227&\2339\227&\2339\026\0177;\374\326~;\tr\306;\227&\2339\227&\2339\227&\2339\227&\2339\227&\2339\227&\2339\227&\2339\227&\2339\227&\2339\227&\2339\227&\2339\227&\2339B|,;\227&\2339\227&\2339\227&\2339\227&\2339\227&\2339\227&\2339\224\345q;\227&\2339\227&\23391\"\002;n@\307;bp\006;\227&\2339\227&\2339\227&\2339\227&\2339\227&\2339\227&\2339\227&\2339\227&\2339\227&\2339\227&\2339\227&\2339\227&\2339\227&\2339\227&\2339[1\\;\312LF;\227&\2339\227&\2339\227&\2339\227&\2339\227&\2339\227&\2339\227&\2339\207:\366:\201\303\021;\001\210\013;\201\303\021;\214J\344;\001\210\013;bp\006;\227&\2339\214(\035;\227&\2339\270c\202;\227&\2339\227&\2339\227&\2339\227&\2339\227&\2339B|,;\227&\2339\227&\2339\270c\202;\227&\2339\227&\2339\227&\2339\227&\2339\227&\2339\227&\2339\227&\2339\227&\2339\227&\2339t\241\204;\227&\2339\227&\2339\227&\2339\227&\2339z\222D;\227&\2339\0358W;\227&\2339\227&\2339\227&\2339\227&\2339\227&\2339\227&\2339\227&\2339\227&\2339\227&\2339\227&\2339\344Q\006;\205\261(;\227&\2339\227&\2339\227&\2339\227&\2339\227&\2339\227&\2339\003\361=;\227&\2339\227&\2339\227&\2339\227&\2339\227&\2339\227&\2339\227&\2339\227&\2339\227&\2339\227&\2339\227&\2339\227&\2339\227&\2339\251\203\031;\227&\2339\2402\023<\227&\2339\227&\2339\227&\2339\227&\2339\227&\2339\227&\2339\n\031\032;\227&\2339\227&\2339\227&\2339\227&\2339\227&\2339\227&\2339\227&\2339\227&\2339\227&\2339\227&\2339\003\361=;\227&\2339\227&\2339\227&\2339\227&\2339\227&\2339\227&\2339\271\021+;\227&\2339\227&\2339\227&\2339\227&\2339\227&\2339\227&\2339\227&\2339\227&\2339\227&\2339\227&\2339\227&\2339\227&\2339\227&\2339\227&\2339\227&\2339\227&\2339\227&\2339\227&\2339\227&\2339\227&\2339\270c\202;\227&\2339\227&\2339\227&\2339\227&\2339\227&\2339%\0370;\227&\2339\227&\2339\227&\2339\227&\2339\227&\2339@\332\265;\227&\2339\227&\2339\344\276\031<\227&\2339\227&\2339%\0370;\227&\2339&jL;\227&\2339\227&\2339\227&\2339\227&\2339\227&\2339\227&\2339\227&\2339\227&\2339\227&\2339\227&\2339\227&\2339\227&\2339\227&\2339\227&\2339\227&\2339\227&\2339\227&\2339\227&\2339\227&\2339\227&\2339I\007v;\227&\2339\227&\2339\227&\2339\227&\2339\227&\2339\227&\2339\227&\2339\227&\2339\227&\2339\227&\2339\227&\2339\227&\2339\227&\2339\227&\2339\227&\2339\227&\2339\227&\2339\227&\2339\227&\2339\227&\2339\227&\2339\227&\2339\227&\2339\227&\2339\227&\2339\374\326~;\227&\2339\227&\2339\227&\2339\227&\2339\227&\2339\227&\2339\227&\2339\227&\2339\227&\2339\227&\2339\227&\2339\227&\2339\227&\2339\227&\2339\227&\2339\227&\2339\227&\2339\227&\2339\227&\2339\2103\310;\227&\2339\227&\2339\227&\2339\227&\2339\227&\2339\227&\2339\232>\264;\227&\2339\227&\2339\227&\2339\227&\2339\227&\2339\227&\2339\227&\2339\227&\2339\227&\2339\227&\2339\227&\2339\227&\2339\227&\2339\227&\2339\227&\2339\227&\2339\227&\2339\227&\2339\227&\2339\227&\2339\227&\2339\227&\2339\227&\2339\227&\2339\227&\2339\227&\2339\227&\2339\227&\2339{\030\225;\351\354\240;\314.@;4l\006;\n\031\032;\n\031\032;vk\215;\351\354\240;\227&\2339\227&\2339\227&\2339\227&\2339\227&\2339\227&\2339\227&\2339\227&\2339\227&\2339\227&\2339\227&\2339\227&\2339\227&\2339\227&\23395\356\365:\357\227\2429X\0307;\315\217q;,\347\237:\3541\215;\357\227\2429\005yL;O\024h;\357\227\2429\357\227\2429#\310\337:\326s(;\357\227\2429\357\227\2429\357\227\2429\360X\264:\357\227\2429\357\227\2429\335\300\321:Q^\345;\357\227\2429\357\227\2429\357\227\2429\355\367/;\351B\263;\357\227\2429\263\3160;-2\303:FX\344:\357\227\2429!H\216;\357\227\2429\344\244\032;\357\227\2429\031\335\355:\357\227\2429K\325\005;s\213\350:\274y\002;K\325\005;\013$(;\211W&;\357\227\2429\375\331\003;\357\227\2429\333\275\\;<\200\200;#\027\032;\357\227\2429\342\'\245:X\363F;\3404\006;\254\326\301;!;\210;E\334B;\023\310t;\033\nN;\357\227\2429\357\227\2429\357\227\2429\357\227\2429D\245\262;\370\023\240;$\377\013;\357\227\2429\357\227\2429\357\227\2429\357\227\2429.\371\273:\357\227\2429\357\227\2429\357\227\2429\240\3603;\357\227\2429\357\227\2429Xg\222;\357\227\2429\357\227\2429\357\227\2429\357\227\2429\357\227\2429\357\227\2429\357\227\2429\357\227\2429\212\033\340:\2018\315:\257.M;\357\227\2429\357\227\2429\035\\\377:\357\227\2429\214\276Q;\357\227\2429\357\227\2429\253\030\017;\357\227\2429\357\227\2429\357\227\2429\357\227\2429\232\374\323;\357\227\2429\357\227\2429w\360\200;\357\227\2429\300S\034;\357\227\2429}\327\276;\357\227\2429\357\227\2429\241s\021;\357\227\2429\357\227\2429\357\227\2429\323\374\252;\\5\351:\n/\343:\357\227\2429\214\335\224;\357\227\2429\350\253u;\357\227\2429\357\227\2429`\337\202;\357\227\2429\357\227\2429\357\227\2429\357\227\2429\032yW;\357\227\2429J\313@;\032yW;\357\227\2429\352\240J;\357\227\2429\002g\223;Or|;\344\244\032;\244\255\000;w/4;\357\227\2429\357\227\2429\357\227\2429\357\227\2429P(,;s\213\350:\357\227\2429\206\331\n;\357\227\2429\357\227\2429.\320\001;\016t\225:\357\227\2429\357\227\2429\357\227\2429\304$\032;\357\227\2429V\225q;\357\227\2429\001\034\363:\357\227\2429\032\233n;\376\320G;\357\227\2429\213}Q;\357\227\2429\357\227\2429\231\r\t;\357\227\2429\026<\377:\256\021N;M\304\242;\357\227\2429\357\227\2429\265\232\276;\245%\227;\241\376k;\251\266\326:\357\227\2429\357\227\2429\273Y\033;\007\220\254;\273\251\n;\357\227\2429<k\316:\357\227\2429\357\227\2429^R\277:\357\227\2429\024np;\357\227\2429\266\356\373:\357\227\2429\357\227\2429\357\227\2429\357\227\2429\357\227\2429\266\367 ;\357\227\2429\357\227\2429\357\227\2429 \313o;\357\227\2429\357\227\2429\002\276\224;\357\227\24291}_;\357\227\2429\357\227\2429%\007\002;\357\227\2429\357\227\2429\357\227\2429\357\227\2429\357\227\2429\357\227\2429\357\227\2429\361r\035;\357\227\2429\357\227\2429\357\227\2429\357\227\2429\357\227\2429\357\227\2429\357\227\2429\357\227\2429\357\227\2429\357\227\2429\357\227\2429\031\243X;\357\227\2429\357\227\2429\357\227\2429\357\227\2429\357\227\2429\357\227\2429LB\006;\357\227\2429\357\227\2429\357\227\2429J(\025;\357\227\2429\357\227\24291cd;\357\227\2429r\222\231;\357\227\2429\357\227\2429T\001\\;\357\227\2429\357\227\2429\357\227\2429\357\227\2429\357\227\2429\030=\020;\357\227\2429\357\227\2429\357\227\2429\357\227\2429\357\227\2429\024\300O;\233p\364:\357\227\2429\357\227\2429E f;\357\227\2429{s[;\357\227\2429X\363F;\357\227\2429\357\227\2429\357\227\2429\261\005\020;\357\227\2429\357\227\2429\357\227\2429\357\227\2429\357\227\2429\343\024\337:\357\227\2429\357\227\2429\357\227\2429\357\227\2429\357\227\2429\357\227\2429\357\227\2429\357\227\2429\357\227\2429\357\227\2429\220\316\027;\350]\374:\357\227\2429\357\227\2429\357\227\2429\303U\356:\357\227\2429\357\227\2429\357\227\2429\357\227\2429\204\347/;\363tP;\357\227\2429\357\227\2429\357\227\2429\357\227\2429\357\227\2429\357\227\2429\255>\003<\357\227\2429\357\227\2429\357\227\2429\357\227\2429$\377\013;\357\227\2429\357\227\2429\364\247\010<\357\227\2429\357\227\2429K\325\005;\357\227\2429\357\227\2429\357\227\2429\357\227\2429Z\n\215;\357\227\2429\357\227\2429\357\227\2429\357\227\2429\357\227\2429\357\227\2429\357\227\2429\357\227\2429\357\227\2429\357\227\2429\357\227\2429<\200\200;\357\227\2429\357\227\2429\357\227\2429\357\227\2429\357\227\2429\357\227\2429\357\227\2429\357\227\2429\357\227\2429\276\006\316:\357\227\2429\357\227\2429\357\227\2429\300@\021;\357\227\2429\357\227\2429\357\227\2429\357\227\2429\357\227\2429\357\227\2429\357\227\2429\357\227\2429\357\227\2429\024\300O;\243\235\242;\357\227\2429\030=\020;\357\227\2429\357\227\2429\357\227\2429\357\227\2429\357\227\2429\357\227\2429\357\227\2429\357\227\2429x\025\010;\357\227\2429\357\227\2429\357\227\2429\357\227\2429\357\227\2429\357\227\2429\357\227\2429\357\227\2429\357\227\2429\357\227\2429\357\227\2429\007g\266:\357\227\2429\357\227\2429\357\227\2429\357\227\2429\357\227\2429\357\227\2429\357\227\2429\222\271Y;\357\227\2429\357\227\2429\357\227\2429\357\227\24291\347\211;\357\227\2429\357\227\2429\357\227\2429:,@<\357\227\2429\006\035\034;\357\227\2429\035\370:;\357\227\2429\357\227\2429\357\227\2429pR\020;\357\227\2429\357\227\2429\357\227\2429\357\227\2429\357\227\2429\357\227\2429\357\227\2429\357\227\2429\357\227\2429\357\227\2429\357\227\2429\357\227\2429\"\307,;\361(\206;x\035\330;hl=;\246\243\032;*\212$;=\232\n<g\3637;\357\227\2429\357\227\2429\357\227\2429\357\227\2429\357\227\2429\357\227\2429\357\227\2429\357\227\2429\357\227\2429\357\227\2429\357\227\2429AF^;%\007\002;\357\227\2429J\363U;\034\001\330:\357\227\2429\357\227\2429\357\227\2429\357\227\2429\357\227\2429\357\227\2429\357\227\2429\357\227\2429\357\227\2429\357\227\2429\357\227\2429\357\227\24291}_;\357\227\2429\357\227\2429\357\227\2429h\212>;\357\227\2429\357\227\2429\357\227\2429\357\227\2429\357\227\2429\357\227\2429\357\227\2429\312%\206;\357\227\2429\357\227\2429\357\227\2429\357\227\2429\376W\353:\357\227\2429\\5\351:\n\324g;\357\227\2429\201\347\036;\357\227\2429\357\227\2429\357\227\2429\357\227\2429\245\320\327:\322\202$;\357\227\2429\357\227\2429\357\227\2429\207\363\221;\357\227\2429\357\227\2429\357\227\2429L]\216;\357\227\2429\357\227\2429\322\202$;\357\227\2429\357\227\2429dV/;\357\227\2429w\3328;\357\227\2429\357\227\24299/\235;\357\227\2429\357\227\2429\357\227\2429\357\227\2429\357\227\2429\357\227\2429\357\227\2429\357\227\2429\357\227\2429\357\227\2429\357\227\2429\357\227\2429\357\227\2429\357\227\2429\203@\025;\344\261<;\357\227\2429\357\227\2429w/4;\357\227\2429\357\227\2429\357\227\2429\357\227\2429j\251w;67\263;\357\227\2429\357\227\2429\357\227\2429\357\227\2429\311_\237;4\376\005;\252\\\037;\357\227\2429\264\230>;\357\227\2429\357\227\2429\357\227\2429\357\227\2429\357\227\2429dV/;\357\227\2429\357\227\2429\357\227\2429\357\227\2429\357\227\2429\357\227\2429\357\227\2429\024\300O;\004\332\t;\357\227\2429\357\227\2429\357\227\2429\357\227\2429\357\227\2429\313\206\030;\357\227\2429\357\227\2429\357\227\2429\357\227\2429\357\227\2429w\3328;\357\227\2429\357\227\2429\357\227\2429\357\227\2429\357\227\2429\357\227\2429\357\227\2429\357\227\2429\357\227\2429\357\227\2429\357\227\2429\357\227\2429\357\227\2429\357\227\2429\357\227\2429\357\227\2429\357\227\2429\357\227\2429\357\227\2429\357\227\2429\357\227\2429\357\227\2429\357\227\2429\357\227\2429LyQ;\357\227\2429\357\227\2429*h\030;\357\227\2429!QG;\357\227\2429\357\227\2429\357\227\2429\357\227\2429\335\021\343:\357\227\2429\316\rc;\357\227\2429\357\227\2429\262S\325;\357\227\2429\357\227\2429\357\227\2429\357\227\2429\357\227\2429\344\261<;\357\227\2429\357\227\2429\363\216\223;\357\227\2429\357\227\2429\357\227\2429\357\227\2429\357\227\2429(j+;\357\227\2429\357\227\2429\357\227\2429\357\227\2429\357\227\2429\357\227\2429\357\227\2429\357\227\2429\357\227\2429\357\227\2429\357\227\2429\357\227\2429\357\227\2429\313\356e;\357\227\2429\357\227\2429\357\227\2429a\002\024<\021\310\\;\357\227\2429\357\227\2429\357\227\2429\357\227\2429\021\310\\;\357\227\2429\357\227\2429\357\227\2429\357\227\2429\357\227\2429D\321J;t\366/;\357\227\2429\211\320\345:\357\227\2429NO);\357\227\2429\357\227\2429\357\227\2429r\027\\;\357\227\2429\357\227\2429\357\227\2429\357\227\2429\357\227\2429\357\227\2429\357\227\2429\357\227\2429\357\227\2429\357\227\2429\357\227\2429\357\227\2429\357\227\2429\357\227\2429\357\227\2429\357\227\2429\357\227\2429\357\227\2429\357\227\2429\357\227\2429\357\227\2429\357\227\2429\357\227\2429\357\227\2429\357\227\2429\316\rc;\357\227\2429\357\227\2429\357\227\2429\357\227\2429\357\227\2429\357\227\2429\357\227\2429\357\227\2429\357\227\2429\357\227\2429\357\227\2429\357\227\2429\357\227\2429\357\227\2429\357\227\2429\357\227\2429\357\227\2429\365<m;\357\227\2429\0058\270;N\325\026;\204\347/;\005\276\245;\361\273#;\204\347/;\344\244\032;\357\227\2429\357\227\2429\357\227\2429\024np;\357\227\2429\357\227\2429\357\227\2429\357\227\2429\357\227\2429\357\227\2429\357\227\2429\357\227\2429\357\227\2429\357\227\2429\357\227\2429\313\356e;\357\227\2429\357\227\2429\357\227\2429\357\227\2429\357\227\2429AF^;\357\227\2429\357\227\2429\357\227\2429\357\227\2429\357\227\2429\357\227\2429\357\227\2429\357\227\2429\357\227\2429\357\227\2429\357\227\2429\357\227\2429\357\227\2429\357\227\2429\357\227\2429\357\227\2429\357\227\2429\357\227\2429\357\227\2429\357\227\2429\357\227\2429\357\227\2429\357\227\2429\357\227\2429\363tP;E f;\357\227\2429\357\227\2429\357\227\2429\357\227\2429\234io;\357\227\2429\357\227\2429\357\227\2429\357\227\2429\357\227\2429\357\227\2429\357\227\2429\357\227\2429\357\227\2429\357\227\2429\357\227\2429\357\227\2429\357\227\2429\357\227\2429\357\227\2429\357\227\2429\357\227\2429\357\227\2429\357\227\2429\357\227\2429\357\227\2429\357\227\2429\357\227\2429\203@\025;\357\227\2429\357\227\2429\357\227\2429\241\376k;\316\rc;\357\227\2429\357\227\2429\357\227\2429\357\227\2429\357\227\2429\357\227\2429\357\227\2429\357\227\2429\264\230>;\357\227\2429\357\227\2429\322\202$;\357\227\2429\340$\010;\357\227\2429\323\341\374:\357\227\2429\357\227\2429\357\227\2429\357\227\2429\357\227\2429\357\227\2429\357\227\2429\357\227\2429\357\227\2429\357\227\2429\357\227\2429\357\227\2429\357\227\2429\357\227\2429\357\227\2429\357\227\2429r\027\\;\357\227\2429\357\227\2429\357\227\2429\302\034\324;Xg\222;\357\227\2429\357\227\2429\357\227\2429\357\227\2429\357\227\2429\357\227\2429\357\227\2429\357\227\2429\357\227\2429\357\227\2429gs\017;\357\227\2429\357\227\2429\357\227\2429\357\227\2429\357\227\2429\357\227\2429\357\227\2429\357\227\2429H\211);P\211\371:\357\227\2429\357\227\2429\357\227\2429\357\227\2429\357\227\2429\357\227\2429\357\227\2429\357\227\2429\357\227\2429\357\227\2429\357\227\2429\357\227\2429\357\227\2429\357\227\2429\357\227\2429\357\227\2429\203@\025;\357\227\2429\357\227\2429gs\017;\357\227\2429\357\227\2429\357\227\2429x\033L;\357\227\2429\357\227\2429\357\227\2429\357\227\2429\357\227\2429\357\227\2429\316\rc;\357\227\2429\357\227\2429\357\227\2429\357\227\2429\357\227\2429\357\227\2429\357\227\2429\357\227\2429\357\227\2429\\\263\227;\357\227\2429\357\227\2429\357\227\2429>\307z;>\307z;\357\227\2429\357\227\24293\027\275;\357\227\2429\357\227\2429\357\227\2429\357\227\2429\357\227\2429\357\227\2429\357\227\2429\357\227\2429\357\227\2429\357\227\2429\357\227\2429\357\227\2429\357\227\2429\357\227\2429\357\227\2429\357\227\2429\357\227\2429\357\227\2429\357\227\2429AF^;E f;\357\227\2429\357\227\2429\357\227\2429\357\227\2429\357\227\2429\357\227\2429\357\227\2429\357\227\2429\357\227\2429\357\227\2429\357\227\2429\357\227\2429\357\227\2429\357\227\2429\357\227\2429\357\227\2429\357\227\2429\357\227\2429\357\227\2429\357\227\2429\357\227\2429\357\227\2429\357\227\2429\357\227\2429\357\227\2429\357\227\2429\357\227\2429\357\227\2429\357\227\2429\357\227\2429\357\227\2429\357\227\2429\357\227\2429\357\227\2429\357\227\2429\357\227\2429\357\227\2429c\027k;\357\227\2429\357\227\2429\357\227\2429\357\227\2429\357\227\2429\357\227\2429\357\227\2429\357\227\2429\357\227\2429\357\227\2429\357\227\2429\357\227\2429\357\227\2429\357\227\2429\357\227\2429\357\227\2429\322\202$;\357\227\2429\357\227\2429\357\227\2429\357\227\2429\357\227\2429\357\227\2429\357\227\2429\357\227\2429\357\227\2429\357\227\2429\357\227\2429\356\372\351;\357\227\2429\357\227\2429\357\227\2429\357\227\2429\357\227\2429\357\227\2429\357\227\2429\357\227\2429\357\227\2429\357\227\2429\265\370\014;\026A\2519\026A\25196t@;\301\207\262:^\265\205;\026A\2519\204\240\226;\257\235m;\026A\2519\026A\2519,\014\324:\026A\2519\026A\2519\026A\2519\026A\2519?\034\231:\026A\2519\026A\2519\350oQ;\001^\025;\026A\2519\026A\2519\026A\2519\200\362\001;\026A\2519\026A\2519\321\232\230;T\276\360:\300\323\016;\026A\2519\001\0359;\026A\2519\026A\2519u\315\211;\037\362\336:\026A\2519\026A\2519\026A\2519\"\263F;\026A\2519og\201;\276\337\266;\026A\2519l\014\243:\026A\2519h\305u:\026A\2519\330o:;\026A\2519\300 